node {
  name: "train_attr/min_nbor_dist"
  op: "Const"
  attr {
    key: "dtype"
    value {
      type: DT_DOUBLE
    }
  }
  attr {
    key: "value"
    value {
      tensor {
        dtype: DT_DOUBLE
        tensor_shape {
        }
        double_val: 0.7534431439000763
      }
    }
  }
}
node {
  name: "train_attr/training_script"
  op: "Const"
  attr {
    key: "dtype"
    value {
      type: DT_STRING
    }
  }
  attr {
    key: "value"
    value {
      tensor {
        dtype: DT_STRING
        tensor_shape {
        }
        string_val: "{\"model\":{\"type_map\":[\"O\",\"H\"],\"descriptor\":{\"type\":\"se_e2_a\",\"sel\":[46,92],\"rcut_smth\":0.5,\"rcut\":4.0,\"neuron\":[25,50,100],\"resnet_dt\":false,\"axis_neuron\":6,\"type_one_side\":true,\"precision\":\"float64\",\"seed\":1,\"activation_function\":\"tanh\",\"trainable\":true,\"exclude_types\":[],\"env_protection\":0.0,\"set_davg_zero\":false},\"fitting_net\":{\"type\":\"dipole\",\"sel_type\":[0],\"neuron\":[100,100,100],\"resnet_dt\":true,\"precision\":\"float64\",\"seed\":1,\"numb_fparam\":0,\"numb_aparam\":0,\"default_fparam\":null,\"dim_case_embd\":0,\"activation_function\":\"tanh\"},\"data_stat_nbatch\":10,\"data_stat_protect\":0.01,\"data_bias_nsample\":10,\"pair_exclude_types\":[],\"atom_exclude_types\":[],\"preset_out_bias\":null,\"srtab_add_bias\":true,\"type\":\"standard\",\"model_branch_alias\":[],\"info\":{}},\"learning_rate\":{\"type\":\"exp\",\"start_lr\":0.01,\"decay_steps\":5000,\"scale_by_worker\":\"linear\",\"stop_lr\":1e-08,\"decay_rate\":null},\"loss\":{\"type\":\"tensor\",\"pref\":1.0,\"pref_atomic\":1.0,\"enable_atomic_weight\":false},\"training\":{\"training_data\":{\"systems\":\"./training_data_reformat/\",\"batch_size\":\"auto\",\"rglob_patterns\":null,\"auto_prob\":\"prob_sys_size\",\"sys_probs\":null},\"numb_steps\":1000,\"seed\":10,\"disp_file\":\"lcurve.out\",\"disp_freq\":100,\"save_freq\":1000,\"validation_data\":null,\"save_ckpt\":\"model.ckpt\",\"max_ckpt_keep\":5,\"change_bias_after_training\":false,\"disp_training\":true,\"time_training\":true,\"disp_avg\":false,\"profiling\":false,\"profiling_file\":\"timeline.json\",\"enable_profiler\":false,\"tensorboard\":false,\"tensorboard_log_dir\":\"log\",\"tensorboard_freq\":1,\"acc_freq\":1,\"opt_type\":\"Adam\"}}"
      }
    }
  }
}
node {
  name: "model_type"
  op: "Const"
  attr {
    key: "dtype"
    value {
      type: DT_STRING
    }
  }
  attr {
    key: "value"
    value {
      tensor {
        dtype: DT_STRING
        tensor_shape {
        }
        string_val: "original_model"
      }
    }
  }
}
node {
  name: "t_box"
  op: "Placeholder"
  attr {
    key: "dtype"
    value {
      type: DT_DOUBLE
    }
  }
  attr {
    key: "shape"
    value {
      shape {
        dim {
          size: -1
        }
      }
    }
  }
}
node {
  name: "t_coord"
  op: "Placeholder"
  attr {
    key: "dtype"
    value {
      type: DT_DOUBLE
    }
  }
  attr {
    key: "shape"
    value {
      shape {
        dim {
          size: -1
        }
      }
    }
  }
}
node {
  name: "t_type"
  op: "Placeholder"
  attr {
    key: "dtype"
    value {
      type: DT_INT32
    }
  }
  attr {
    key: "shape"
    value {
      shape {
        dim {
          size: -1
        }
      }
    }
  }
}
node {
  name: "t_natoms"
  op: "Placeholder"
  attr {
    key: "dtype"
    value {
      type: DT_INT32
    }
  }
  attr {
    key: "shape"
    value {
      shape {
        dim {
          size: 4
        }
      }
    }
  }
}
node {
  name: "t_mesh"
  op: "Placeholder"
  attr {
    key: "dtype"
    value {
      type: DT_INT32
    }
  }
  attr {
    key: "shape"
    value {
      shape {
        dim {
          size: -1
        }
      }
    }
  }
}
node {
  name: "model_attr/tmap"
  op: "Const"
  attr {
    key: "dtype"
    value {
      type: DT_STRING
    }
  }
  attr {
    key: "value"
    value {
      tensor {
        dtype: DT_STRING
        tensor_shape {
        }
        string_val: "O H"
      }
    }
  }
}
node {
  name: "model_attr/sel_type"
  op: "Const"
  attr {
    key: "dtype"
    value {
      type: DT_INT32
    }
  }
  attr {
    key: "value"
    value {
      tensor {
        dtype: DT_INT32
        tensor_shape {
          dim {
            size: 1
          }
        }
        int_val: 0
      }
    }
  }
}
node {
  name: "model_attr/model_type"
  op: "Const"
  attr {
    key: "dtype"
    value {
      type: DT_STRING
    }
  }
  attr {
    key: "value"
    value {
      tensor {
        dtype: DT_STRING
        tensor_shape {
        }
        string_val: "dipole"
      }
    }
  }
}
node {
  name: "model_attr/model_version"
  op: "Const"
  attr {
    key: "dtype"
    value {
      type: DT_STRING
    }
  }
  attr {
    key: "value"
    value {
      tensor {
        dtype: DT_STRING
        tensor_shape {
        }
        string_val: "1.1"
      }
    }
  }
}
node {
  name: "model_attr/output_dim"
  op: "Const"
  attr {
    key: "dtype"
    value {
      type: DT_INT32
    }
  }
  attr {
    key: "value"
    value {
      tensor {
        dtype: DT_INT32
        tensor_shape {
        }
        int_val: 3
      }
    }
  }
}
node {
  name: "strided_slice/stack"
  op: "Const"
  attr {
    key: "dtype"
    value {
      type: DT_INT32
    }
  }
  attr {
    key: "value"
    value {
      tensor {
        dtype: DT_INT32
        tensor_shape {
          dim {
            size: 1
          }
        }
        int_val: 2
      }
    }
  }
}
node {
  name: "strided_slice/stack_1"
  op: "Const"
  attr {
    key: "dtype"
    value {
      type: DT_INT32
    }
  }
  attr {
    key: "value"
    value {
      tensor {
        dtype: DT_INT32
        tensor_shape {
          dim {
            size: 1
          }
        }
        int_val: 3
      }
    }
  }
}
node {
  name: "strided_slice/stack_2"
  op: "Const"
  attr {
    key: "dtype"
    value {
      type: DT_INT32
    }
  }
  attr {
    key: "value"
    value {
      tensor {
        dtype: DT_INT32
        tensor_shape {
          dim {
            size: 1
          }
        }
        int_val: 1
      }
    }
  }
}
node {
  name: "strided_slice"
  op: "StridedSlice"
  input: "t_natoms"
  input: "strided_slice/stack"
  input: "strided_slice/stack_1"
  input: "strided_slice/stack_2"
  attr {
    key: "Index"
    value {
      type: DT_INT32
    }
  }
  attr {
    key: "T"
    value {
      type: DT_INT32
    }
  }
  attr {
    key: "begin_mask"
    value {
      i: 0
    }
  }
  attr {
    key: "ellipsis_mask"
    value {
      i: 0
    }
  }
  attr {
    key: "end_mask"
    value {
      i: 0
    }
  }
  attr {
    key: "new_axis_mask"
    value {
      i: 0
    }
  }
  attr {
    key: "shrink_axis_mask"
    value {
      i: 1
    }
  }
}
node {
  name: "add/x"
  op: "Const"
  attr {
    key: "dtype"
    value {
      type: DT_INT32
    }
  }
  attr {
    key: "value"
    value {
      tensor {
        dtype: DT_INT32
        tensor_shape {
        }
        int_val: 0
      }
    }
  }
}
node {
  name: "add"
  op: "AddV2"
  input: "add/x"
  input: "strided_slice"
  attr {
    key: "T"
    value {
      type: DT_INT32
    }
  }
}
node {
  name: "strided_slice_1/stack"
  op: "Const"
  attr {
    key: "dtype"
    value {
      type: DT_INT32
    }
  }
  attr {
    key: "value"
    value {
      tensor {
        dtype: DT_INT32
        tensor_shape {
          dim {
            size: 1
          }
        }
        int_val: 1
      }
    }
  }
}
node {
  name: "strided_slice_1/stack_1"
  op: "Const"
  attr {
    key: "dtype"
    value {
      type: DT_INT32
    }
  }
  attr {
    key: "value"
    value {
      tensor {
        dtype: DT_INT32
        tensor_shape {
          dim {
            size: 1
          }
        }
        int_val: 2
      }
    }
  }
}
node {
  name: "strided_slice_1/stack_2"
  op: "Const"
  attr {
    key: "dtype"
    value {
      type: DT_INT32
    }
  }
  attr {
    key: "value"
    value {
      tensor {
        dtype: DT_INT32
        tensor_shape {
          dim {
            size: 1
          }
        }
        int_val: 1
      }
    }
  }
}
node {
  name: "strided_slice_1"
  op: "StridedSlice"
  input: "t_natoms"
  input: "strided_slice_1/stack"
  input: "strided_slice_1/stack_1"
  input: "strided_slice_1/stack_2"
  attr {
    key: "Index"
    value {
      type: DT_INT32
    }
  }
  attr {
    key: "T"
    value {
      type: DT_INT32
    }
  }
  attr {
    key: "begin_mask"
    value {
      i: 0
    }
  }
  attr {
    key: "ellipsis_mask"
    value {
      i: 0
    }
  }
  attr {
    key: "end_mask"
    value {
      i: 0
    }
  }
  attr {
    key: "new_axis_mask"
    value {
      i: 0
    }
  }
  attr {
    key: "shrink_axis_mask"
    value {
      i: 1
    }
  }
}
node {
  name: "mul/y"
  op: "Const"
  attr {
    key: "dtype"
    value {
      type: DT_INT32
    }
  }
  attr {
    key: "value"
    value {
      tensor {
        dtype: DT_INT32
        tensor_shape {
        }
        int_val: 3
      }
    }
  }
}
node {
  name: "mul"
  op: "Mul"
  input: "strided_slice_1"
  input: "mul/y"
  attr {
    key: "T"
    value {
      type: DT_INT32
    }
  }
}
node {
  name: "Reshape/shape/0"
  op: "Const"
  attr {
    key: "dtype"
    value {
      type: DT_INT32
    }
  }
  attr {
    key: "value"
    value {
      tensor {
        dtype: DT_INT32
        tensor_shape {
        }
        int_val: -1
      }
    }
  }
}
node {
  name: "Reshape/shape"
  op: "Pack"
  input: "Reshape/shape/0"
  input: "mul"
  attr {
    key: "N"
    value {
      i: 2
    }
  }
  attr {
    key: "T"
    value {
      type: DT_INT32
    }
  }
  attr {
    key: "axis"
    value {
      i: 0
    }
  }
}
node {
  name: "Reshape"
  op: "Reshape"
  input: "t_coord"
  input: "Reshape/shape"
  attr {
    key: "T"
    value {
      type: DT_DOUBLE
    }
  }
  attr {
    key: "Tshape"
    value {
      type: DT_INT32
    }
  }
}
node {
  name: "strided_slice_2/stack"
  op: "Const"
  attr {
    key: "dtype"
    value {
      type: DT_INT32
    }
  }
  attr {
    key: "value"
    value {
      tensor {
        dtype: DT_INT32
        tensor_shape {
          dim {
            size: 1
          }
        }
        int_val: 1
      }
    }
  }
}
node {
  name: "strided_slice_2/stack_1"
  op: "Const"
  attr {
    key: "dtype"
    value {
      type: DT_INT32
    }
  }
  attr {
    key: "value"
    value {
      tensor {
        dtype: DT_INT32
        tensor_shape {
          dim {
            size: 1
          }
        }
        int_val: 2
      }
    }
  }
}
node {
  name: "strided_slice_2/stack_2"
  op: "Const"
  attr {
    key: "dtype"
    value {
      type: DT_INT32
    }
  }
  attr {
    key: "value"
    value {
      tensor {
        dtype: DT_INT32
        tensor_shape {
          dim {
            size: 1
          }
        }
        int_val: 1
      }
    }
  }
}
node {
  name: "strided_slice_2"
  op: "StridedSlice"
  input: "t_natoms"
  input: "strided_slice_2/stack"
  input: "strided_slice_2/stack_1"
  input: "strided_slice_2/stack_2"
  attr {
    key: "Index"
    value {
      type: DT_INT32
    }
  }
  attr {
    key: "T"
    value {
      type: DT_INT32
    }
  }
  attr {
    key: "begin_mask"
    value {
      i: 0
    }
  }
  attr {
    key: "ellipsis_mask"
    value {
      i: 0
    }
  }
  attr {
    key: "end_mask"
    value {
      i: 0
    }
  }
  attr {
    key: "new_axis_mask"
    value {
      i: 0
    }
  }
  attr {
    key: "shrink_axis_mask"
    value {
      i: 1
    }
  }
}
node {
  name: "Reshape_1/shape/0"
  op: "Const"
  attr {
    key: "dtype"
    value {
      type: DT_INT32
    }
  }
  attr {
    key: "value"
    value {
      tensor {
        dtype: DT_INT32
        tensor_shape {
        }
        int_val: -1
      }
    }
  }
}
node {
  name: "Reshape_1/shape"
  op: "Pack"
  input: "Reshape_1/shape/0"
  input: "strided_slice_2"
  attr {
    key: "N"
    value {
      i: 2
    }
  }
  attr {
    key: "T"
    value {
      type: DT_INT32
    }
  }
  attr {
    key: "axis"
    value {
      i: 0
    }
  }
}
node {
  name: "Reshape_1"
  op: "Reshape"
  input: "t_type"
  input: "Reshape_1/shape"
  attr {
    key: "T"
    value {
      type: DT_INT32
    }
  }
  attr {
    key: "Tshape"
    value {
      type: DT_INT32
    }
  }
}
node {
  name: "descrpt_attr/rcut"
  op: "Const"
  attr {
    key: "dtype"
    value {
      type: DT_DOUBLE
    }
  }
  attr {
    key: "value"
    value {
      tensor {
        dtype: DT_DOUBLE
        tensor_shape {
        }
        double_val: 4.0
      }
    }
  }
}
node {
  name: "descrpt_attr/ntypes"
  op: "Const"
  attr {
    key: "dtype"
    value {
      type: DT_INT32
    }
  }
  attr {
    key: "value"
    value {
      tensor {
        dtype: DT_INT32
        tensor_shape {
        }
        int_val: 2
      }
    }
  }
}
node {
  name: "descrpt_attr/ndescrpt"
  op: "Const"
  attr {
    key: "dtype"
    value {
      type: DT_INT32
    }
  }
  attr {
    key: "value"
    value {
      tensor {
        dtype: DT_INT32
        tensor_shape {
        }
        int_val: 552
      }
    }
  }
}
node {
  name: "descrpt_attr/sel"
  op: "Const"
  attr {
    key: "_has_manual_control_dependencies"
    value {
      b: true
    }
  }
  attr {
    key: "dtype"
    value {
      type: DT_INT32
    }
  }
  attr {
    key: "value"
    value {
      tensor {
        dtype: DT_INT32
        tensor_shape {
          dim {
            size: 2
          }
        }
        tensor_content: ".\000\000\000\\\000\000\000"
      }
    }
  }
}
node {
  name: "descrpt_attr/original_sel"
  op: "Const"
  attr {
    key: "_has_manual_control_dependencies"
    value {
      b: true
    }
  }
  attr {
    key: "dtype"
    value {
      type: DT_INT32
    }
  }
  attr {
    key: "value"
    value {
      tensor {
        dtype: DT_INT32
        tensor_shape {
          dim {
            size: 2
          }
        }
        tensor_content: ".\000\000\000\\\000\000\000"
      }
    }
  }
}
node {
  name: "descrpt_attr/t_avg"
  op: "Const"
  attr {
    key: "dtype"
    value {
      type: DT_DOUBLE
    }
  }
  attr {
    key: "value"
    value {
      tensor {
        dtype: DT_DOUBLE
        tensor_shape {
          dim {
            size: 2
          }
          dim {
            size: 552
          }
        }
        tensor_content: "\322RP\235\017Z\225?\000\000\000\000\000\000\000\000\000\000\000\000\000\000\000\000\000\000\000\000\000\000\000\000\322RP\235\017Z\225?\000\000\000\000\000\000\000\000\000\000\000\000\000\000\000\000\000\000\000\000\000\000\000\000\322RP\235\017Z\225?\000\000\000\000\000\000\000\000\000\000\000\000\000\000\000\000\000\000\000\000\000\000\000\000\322RP\235\017Z\225?\000\000\000\000\000\000\000\000\000\000\000\000\000\000\000\000\000\000\000\000\000\000\000\000\322RP\235\017Z\225?\000\000\000\000\000\000\000\000\000\000\000\000\000\000\000\000\000\000\000\000\000\000\000\000\322RP\235\017Z\225?\000\000\000\000\000\000\000\000\000\000\000\000\000\000\000\000\000\000\000\000\000\000\000\000\322RP\235\017Z\225?\000\000\000\000\000\000\000\000\000\000\000\000\000\000\000\000\000\000\000\000\000\000\000\000\322RP\235\017Z\225?\000\000\000\000\000\000\000\000\000\000\000\000\000\000\000\000\000\000\000\000\000\000\000\000\322RP\235\017Z\225?\000\000\000\000\000\000\000\000\000\000\000\000\000\000\000\000\000\000\000\000\000\000\000\000\322RP\235\017Z\225?\000\000\000\000\000\000\000\000\000\000\000\000\000\000\000\000\000\000\000\000\000\000\000\000\322RP\235\017Z\225?\000\000\000\000\000\000\000\000\000\000\000\000\000\000\000\000\000\000\000\000\000\000\000\000\322RP\235\017Z\225?\000\000\000\000\000\000\000\000\000\000\000\000\000\000\000\000\000\000\000\000\000\000\000\000\322RP\235\017Z\225?\000\000\000\000\000\000\000\000\000\000\000\000\000\000\000\000\000\000\000\000\000\000\000\000\322RP\235\017Z\225?\000\000\000\000\000\000\000\000\000\000\000\000\000\000\000\000\000\000\000\000\000\000\000\000\322RP\235\017Z\225?\000\000\000\000\000\000\000\000\000\000\000\000\000\000\000\000\000\000\000\000\000\000\000\000\322RP\235\017Z\225?\000\000\000\000\000\000\000\000\000\000\000\000\000\000\000\000\000\000\000\000\000\000\000\000\322RP\235\017Z\225?\000\000\000\000\000\000\000\000\000\000\000\000\000\000\000\000\000\000\000\000\000\000\000\000\322RP\235\017Z\225?\000\000\000\000\000\000\000\000\000\000\000\000\000\000\000\000\000\000\000\000\000\000\000\000\322RP\235\017Z\225?\000\000\000\000\000\000\000\000\000\000\000\000\000\000\000\000\000\000\000\000\000\000\000\000\322RP\235\017Z\225?\000\000\000\000\000\000\000\000\000\000\000\000\000\000\000\000\000\000\000\000\000\000\000\000\322RP\235\017Z\225?\000\000\000\000\000\000\000\000\000\000\000\000\000\000\000\000\000\000\000\000\000\000\000\000\322RP\235\017Z\225?\000\000\000\000\000\000\000\000\000\000\000\000\000\000\000\000\000\000\000\000\000\000\000\000\322RP\235\017Z\225?\000\000\000\000\000\000\000\000\000\000\000\000\000\000\000\000\000\000\000\000\000\000\000\000\322RP\235\017Z\225?\000\000\000\000\000\000\000\000\000\000\000\000\000\000\000\000\000\000\000\000\000\000\000\000\322RP\235\017Z\225?\000\000\000\000\000\000\000\000\000\000\000\000\000\000\000\000\000\000\000\000\000\000\000\000\322RP\235\017Z\225?\000\000\000\000\000\000\000\000\000\000\000\000\000\000\000\000\000\000\000\000\000\000\000\000\322RP\235\017Z\225?\000\000\000\000\000\000\000\000\000\000\000\000\000\000\000\000\000\000\000\000\000\000\000\000\322RP\235\017Z\225?\000\000\000\000\000\000\000\000\000\000\000\000\000\000\000\000\000\000\000\000\000\000\000\000\322RP\235\017Z\225?\000\000\000\000\000\000\000\000\000\000\000\000\000\000\000\000\000\000\000\000\000\000\000\000\322RP\235\017Z\225?\000\000\000\000\000\000\000\000\000\000\000\000\000\000\000\000\000\000\000\000\000\000\000\000\322RP\235\017Z\225?\000\000\000\000\000\000\000\000\000\000\000\000\000\000\000\000\000\000\000\000\000\000\000\000\322RP\235\017Z\225?\000\000\000\000\000\000\000\000\000\000\000\000\000\000\000\000\000\000\000\000\000\000\000\000\322RP\235\017Z\225?\000\000\000\000\000\000\000\000\000\000\000\000\000\000\000\000\000\000\000\000\000\000\000\000\322RP\235\017Z\225?\000\000\000\000\000\000\000\000\000\000\000\000\000\000\000\000\000\000\000\000\000\000\000\000\322RP\235\017Z\225?\000\000\000\000\000\000\000\000\000\000\000\000\000\000\000\000\000\000\000\000\000\000\000\000\322RP\235\017Z\225?\000\000\000\000\000\000\000\000\000\000\000\000\000\000\000\000\000\000\000\000\000\000\000\000\322RP\235\017Z\225?\000\000\000\000\000\000\000\000\000\000\000\000\000\000\000\000\000\000\000\000\000\000\000\000\322RP\235\017Z\225?\000\000\000\000\000\000\000\000\000\000\000\000\000\000\000\000\000\000\000\000\000\000\000\000\322RP\235\017Z\225?\000\000\000\000\000\000\000\000\000\000\000\000\000\000\000\000\000\000\000\000\000\000\000\000\322RP\235\017Z\225?\000\000\000\000\000\000\000\000\000\000\000\000\000\000\000\000\000\000\000\000\000\000\000\000\322RP\235\017Z\225?\000\000\000\000\000\000\000\000\000\000\000\000\000\000\000\000\000\000\000\000\000\000\000\000\322RP\235\017Z\225?\000\000\000\000\000\000\000\000\000\000\000\000\000\000\000\000\000\000\000\000\000\000\000\000\322RP\235\017Z\225?\000\000\000\000\000\000\000\000\000\000\000\000\000\000\000\000\000\000\000\000\000\000\000\000\322RP\235\017Z\225?\000\000\000\000\000\000\000\000\000\000\000\000\000\000\000\000\000\000\000\000\000\000\000\000\322RP\235\017Z\225?\000\000\000\000\000\000\000\000\000\000\000\000\000\000\000\000\000\000\000\000\000\000\000\000\322RP\235\017Z\225?\000\000\000\000\000\000\000\000\000\000\000\000\000\000\000\000\000\000\000\000\000\000\000\000\322RP\235\017Z\225?\000\000\000\000\000\000\000\000\000\000\000\000\000\000\000\000\000\000\000\000\000\000\000\000\322RP\235\017Z\225?\000\000\000\000\000\000\000\000\000\000\000\000\000\000\000\000\000\000\000\000\000\000\000\000\322RP\235\017Z\225?\000\000\000\000\000\000\000\000\000\000\000\000\000\000\000\000\000\000\000\000\000\000\000\000\322RP\235\017Z\225?\000\000\000\000\000\000\000\000\000\000\000\000\000\000\000\000\000\000\000\000\000\000\000\000\322RP\235\017Z\225?\000\000\000\000\000\000\000\000\000\000\000\000\000\000\000\000\000\000\000\000\000\000\000\000\322RP\235\017Z\225?\000\000\000\000\000\000\000\000\000\000\000\000\000\000\000\000\000\000\000\000\000\000\000\000\322RP\235\017Z\225?\000\000\000\000\000\000\000\000\000\000\000\000\000\000\000\000\000\000\000\000\000\000\000\000\322RP\235\017Z\225?\000\000\000\000\000\000\000\000\000\000\000\000\000\000\000\000\000\000\000\000\000\000\000\000\322RP\235\017Z\225?\000\000\000\000\000\000\000\000\000\000\000\000\000\000\000\000\000\000\000\000\000\000\000\000\322RP\235\017Z\225?\000\000\000\000\000\000\000\000\000\000\000\000\000\000\000\000\000\000\000\000\000\000\000\000\322RP\235\017Z\225?\000\000\000\000\000\000\000\000\000\000\000\000\000\000\000\000\000\000\000\000\000\000\000\000\322RP\235\017Z\225?\000\000\000\000\000\000\000\000\000\000\000\000\000\000\000\000\000\000\000\000\000\000\000\000\322RP\235\017Z\225?\000\000\000\000\000\000\000\000\000\000\000\000\000\000\000\000\000\000\000\000\000\000\000\000\322RP\235\017Z\225?\000\000\000\000\000\000\000\000\000\000\000\000\000\000\000\000\000\000\000\000\000\000\000\000\322RP\235\017Z\225?\000\000\000\000\000\000\000\000\000\000\000\000\000\000\000\000\000\000\000\000\000\000\000\000\322RP\235\017Z\225?\000\000\000\000\000\000\000\000\000\000\000\000\000\000\000\000\000\000\000\000\000\000\000\000\322RP\235\017Z\225?\000\000\000\000\000\000\000\000\000\000\000\000\000\000\000\000\000\000\000\000\000\000\000\000\322RP\235\017Z\225?\000\000\000\000\000\000\000\000\000\000\000\000\000\000\000\000\000\000\000\000\000\000\000\000\322RP\235\017Z\225?\000\000\000\000\000\000\000\000\000\000\000\000\000\000\000\000\000\000\000\000\000\000\000\000\322RP\235\017Z\225?\000\000\000\000\000\000\000\000\000\000\000\000\000\000\000\000\000\000\000\000\000\000\000\000\322RP\235\017Z\225?\000\000\000\000\000\000\000\000\000\000\000\000\000\000\000\000\000\000\000\000\000\000\000\000\322RP\235\017Z\225?\000\000\000\000\000\000\000\000\000\000\000\000\000\000\000\000\000\000\000\000\000\000\000\000\322RP\235\017Z\225?\000\000\000\000\000\000\000\000\000\000\000\000\000\000\000\000\000\000\000\000\000\000\000\000\322RP\235\017Z\225?\000\000\000\000\000\000\000\000\000\000\000\000\000\000\000\000\000\000\000\000\000\000\000\000\322RP\235\017Z\225?\000\000\000\000\000\000\000\000\000\000\000\000\000\000\000\000\000\000\000\000\000\000\000\000\322RP\235\017Z\225?\000\000\000\000\000\000\000\000\000\000\000\000\000\000\000\000\000\000\000\000\000\000\000\000\322RP\235\017Z\225?\000\000\000\000\000\000\000\000\000\000\000\000\000\000\000\000\000\000\000\000\000\000\000\000\322RP\235\017Z\225?\000\000\000\000\000\000\000\000\000\000\000\000\000\000\000\000\000\000\000\000\000\000\000\000\322RP\235\017Z\225?\000\000\000\000\000\000\000\000\000\000\000\000\000\000\000\000\000\000\000\000\000\000\000\000\322RP\235\017Z\225?\000\000\000\000\000\000\000\000\000\000\000\000\000\000\000\000\000\000\000\000\000\000\000\000\322RP\235\017Z\225?\000\000\000\000\000\000\000\000\000\000\000\000\000\000\000\000\000\000\000\000\000\000\000\000\322RP\235\017Z\225?\000\000\000\000\000\000\000\000\000\000\000\000\000\000\000\000\000\000\000\000\000\000\000\000\322RP\235\017Z\225?\000\000\000\000\000\000\000\000\000\000\000\000\000\000\000\000\000\000\000\000\000\000\000\000\322RP\235\017Z\225?\000\000\000\000\000\000\000\000\000\000\000\000\000\000\000\000\000\000\000\000\000\000\000\000\322RP\235\017Z\225?\000\000\000\000\000\000\000\000\000\000\000\000\000\000\000\000\000\000\000\000\000\000\000\000\322RP\235\017Z\225?\000\000\000\000\000\000\000\000\000\000\000\000\000\000\000\000\000\000\000\000\000\000\000\000\322RP\235\017Z\225?\000\000\000\000\000\000\000\000\000\000\000\000\000\000\000\000\000\000\000\000\000\000\000\000\322RP\235\017Z\225?\000\000\000\000\000\000\000\000\000\000\000\000\000\000\000\000\000\000\000\000\000\000\000\000\322RP\235\017Z\225?\000\000\000\000\000\000\000\000\000\000\000\000\000\000\000\000\000\000\000\000\000\000\000\000\322RP\235\017Z\225?\000\000\000\000\000\000\000\000\000\000\000\000\000\000\000\000\000\000\000\000\000\000\000\000\322RP\235\017Z\225?\000\000\000\000\000\000\000\000\000\000\000\000\000\000\000\000\000\000\000\000\000\000\000\000\322RP\235\017Z\225?\000\000\000\000\000\000\000\000\000\000\000\000\000\000\000\000\000\000\000\000\000\000\000\000\322RP\235\017Z\225?\000\000\000\000\000\000\000\000\000\000\000\000\000\000\000\000\000\000\000\000\000\000\000\000\322RP\235\017Z\225?\000\000\000\000\000\000\000\000\000\000\000\000\000\000\000\000\000\000\000\000\000\000\000\000\322RP\235\017Z\225?\000\000\000\000\000\000\000\000\000\000\000\000\000\000\000\000\000\000\000\000\000\000\000\000\322RP\235\017Z\225?\000\000\000\000\000\000\000\000\000\000\000\000\000\000\000\000\000\000\000\000\000\000\000\000\322RP\235\017Z\225?\000\000\000\000\000\000\000\000\000\000\000\000\000\000\000\000\000\000\000\000\000\000\000\000\322RP\235\017Z\225?\000\000\000\000\000\000\000\000\000\000\000\000\000\000\000\000\000\000\000\000\000\000\000\000\322RP\235\017Z\225?\000\000\000\000\000\000\000\000\000\000\000\000\000\000\000\000\000\000\000\000\000\000\000\000\322RP\235\017Z\225?\000\000\000\000\000\000\000\000\000\000\000\000\000\000\000\000\000\000\000\000\000\000\000\000\322RP\235\017Z\225?\000\000\000\000\000\000\000\000\000\000\000\000\000\000\000\000\000\000\000\000\000\000\000\000\322RP\235\017Z\225?\000\000\000\000\000\000\000\000\000\000\000\000\000\000\000\000\000\000\000\000\000\000\000\000\322RP\235\017Z\225?\000\000\000\000\000\000\000\000\000\000\000\000\000\000\000\000\000\000\000\000\000\000\000\000\322RP\235\017Z\225?\000\000\000\000\000\000\000\000\000\000\000\000\000\000\000\000\000\000\000\000\000\000\000\000\322RP\235\017Z\225?\000\000\000\000\000\000\000\000\000\000\000\000\000\000\000\000\000\000\000\000\000\000\000\000\322RP\235\017Z\225?\000\000\000\000\000\000\000\000\000\000\000\000\000\000\000\000\000\000\000\000\000\000\000\000\322RP\235\017Z\225?\000\000\000\000\000\000\000\000\000\000\000\000\000\000\000\000\000\000\000\000\000\000\000\000\322RP\235\017Z\225?\000\000\000\000\000\000\000\000\000\000\000\000\000\000\000\000\000\000\000\000\000\000\000\000\322RP\235\017Z\225?\000\000\000\000\000\000\000\000\000\000\000\000\000\000\000\000\000\000\000\000\000\000\000\000\322RP\235\017Z\225?\000\000\000\000\000\000\000\000\000\000\000\000\000\000\000\000\000\000\000\000\000\000\000\000\322RP\235\017Z\225?\000\000\000\000\000\000\000\000\000\000\000\000\000\000\000\000\000\000\000\000\000\000\000\000\322RP\235\017Z\225?\000\000\000\000\000\000\000\000\000\000\000\000\000\000\000\000\000\000\000\000\000\000\000\000\322RP\235\017Z\225?\000\000\000\000\000\000\000\000\000\000\000\000\000\000\000\000\000\000\000\000\000\000\000\000\322RP\235\017Z\225?\000\000\000\000\000\000\000\000\000\000\000\000\000\000\000\000\000\000\000\000\000\000\000\000\322RP\235\017Z\225?\000\000\000\000\000\000\000\000\000\000\000\000\000\000\000\000\000\000\000\000\000\000\000\000\322RP\235\017Z\225?\000\000\000\000\000\000\000\000\000\000\000\000\000\000\000\000\000\000\000\000\000\000\000\000\322RP\235\017Z\225?\000\000\000\000\000\000\000\000\000\000\000\000\000\000\000\000\000\000\000\000\000\000\000\000\322RP\235\017Z\225?\000\000\000\000\000\000\000\000\000\000\000\000\000\000\000\000\000\000\000\000\000\000\000\000\322RP\235\017Z\225?\000\000\000\000\000\000\000\000\000\000\000\000\000\000\000\000\000\000\000\000\000\000\000\000\322RP\235\017Z\225?\000\000\000\000\000\000\000\000\000\000\000\000\000\000\000\000\000\000\000\000\000\000\000\000\322RP\235\017Z\225?\000\000\000\000\000\000\000\000\000\000\000\000\000\000\000\000\000\000\000\000\000\000\000\000\322RP\235\017Z\225?\000\000\000\000\000\000\000\000\000\000\000\000\000\000\000\000\000\000\000\000\000\000\000\000\322RP\235\017Z\225?\000\000\000\000\000\000\000\000\000\000\000\000\000\000\000\000\000\000\000\000\000\000\000\000\322RP\235\017Z\225?\000\000\000\000\000\000\000\000\000\000\000\000\000\000\000\000\000\000\000\000\000\000\000\000\322RP\235\017Z\225?\000\000\000\000\000\000\000\000\000\000\000\000\000\000\000\000\000\000\000\000\000\000\000\000\322RP\235\017Z\225?\000\000\000\000\000\000\000\000\000\000\000\000\000\000\000\000\000\000\000\000\000\000\000\000\322RP\235\017Z\225?\000\000\000\000\000\000\000\000\000\000\000\000\000\000\000\000\000\000\000\000\000\000\000\000\322RP\235\017Z\225?\000\000\000\000\000\000\000\000\000\000\000\000\000\000\000\000\000\000\000\000\000\000\000\000\322RP\235\017Z\225?\000\000\000\000\000\000\000\000\000\000\000\000\000\000\000\000\000\000\000\000\000\000\000\000\322RP\235\017Z\225?\000\000\000\000\000\000\000\000\000\000\000\000\000\000\000\000\000\000\000\000\000\000\000\000\322RP\235\017Z\225?\000\000\000\000\000\000\000\000\000\000\000\000\000\000\000\000\000\000\000\000\000\000\000\000\322RP\235\017Z\225?\000\000\000\000\000\000\000\000\000\000\000\000\000\000\000\000\000\000\000\000\000\000\000\000\322RP\235\017Z\225?\000\000\000\000\000\000\000\000\000\000\000\000\000\000\000\000\000\000\000\000\000\000\000\000\322RP\235\017Z\225?\000\000\000\000\000\000\000\000\000\000\000\000\000\000\000\000\000\000\000\000\000\000\000\000\322RP\235\017Z\225?\000\000\000\000\000\000\000\000\000\000\000\000\000\000\000\000\000\000\000\000\000\000\000\000\322RP\235\017Z\225?\000\000\000\000\000\000\000\000\000\000\000\000\000\000\000\000\000\000\000\000\000\000\000\000\322RP\235\017Z\225?\000\000\000\000\000\000\000\000\000\000\000\000\000\000\000\000\000\000\000\000\000\000\000\000\322RP\235\017Z\225?\000\000\000\000\000\000\000\000\000\000\000\000\000\000\000\000\000\000\000\000\000\000\000\000\322RP\235\017Z\225?\000\000\000\000\000\000\000\000\000\000\000\000\000\000\000\000\000\000\000\000\000\000\000\000\322RP\235\017Z\225?\000\000\000\000\000\000\000\000\000\000\000\000\000\000\000\000\000\000\000\000\000\000\000\000\322RP\235\017Z\225?\000\000\000\000\000\000\000\000\000\000\000\000\000\000\000\000\000\000\000\000\000\000\000\000\322RP\235\017Z\225?\000\000\000\000\000\000\000\000\000\000\000\000\000\000\000\000\000\000\000\000\000\000\000\000\224Fge2\223\222?\000\000\000\000\000\000\000\000\000\000\000\000\000\000\000\000\000\000\000\000\000\000\000\000\224Fge2\223\222?\000\000\000\000\000\000\000\000\000\000\000\000\000\000\000\000\000\000\000\000\000\000\000\000\224Fge2\223\222?\000\000\000\000\000\000\000\000\000\000\000\000\000\000\000\000\000\000\000\000\000\000\000\000\224Fge2\223\222?\000\000\000\000\000\000\000\000\000\000\000\000\000\000\000\000\000\000\000\000\000\000\000\000\224Fge2\223\222?\000\000\000\000\000\000\000\000\000\000\000\000\000\000\000\000\000\000\000\000\000\000\000\000\224Fge2\223\222?\000\000\000\000\000\000\000\000\000\000\000\000\000\000\000\000\000\000\000\000\000\000\000\000\224Fge2\223\222?\000\000\000\000\000\000\000\000\000\000\000\000\000\000\000\000\000\000\000\000\000\000\000\000\224Fge2\223\222?\000\000\000\000\000\000\000\000\000\000\000\000\000\000\000\000\000\000\000\000\000\000\000\000\224Fge2\223\222?\000\000\000\000\000\000\000\000\000\000\000\000\000\000\000\000\000\000\000\000\000\000\000\000\224Fge2\223\222?\000\000\000\000\000\000\000\000\000\000\000\000\000\000\000\000\000\000\000\000\000\000\000\000\224Fge2\223\222?\000\000\000\000\000\000\000\000\000\000\000\000\000\000\000\000\000\000\000\000\000\000\000\000\224Fge2\223\222?\000\000\000\000\000\000\000\000\000\000\000\000\000\000\000\000\000\000\000\000\000\000\000\000\224Fge2\223\222?\000\000\000\000\000\000\000\000\000\000\000\000\000\000\000\000\000\000\000\000\000\000\000\000\224Fge2\223\222?\000\000\000\000\000\000\000\000\000\000\000\000\000\000\000\000\000\000\000\000\000\000\000\000\224Fge2\223\222?\000\000\000\000\000\000\000\000\000\000\000\000\000\000\000\000\000\000\000\000\000\000\000\000\224Fge2\223\222?\000\000\000\000\000\000\000\000\000\000\000\000\000\000\000\000\000\000\000\000\000\000\000\000\224Fge2\223\222?\000\000\000\000\000\000\000\000\000\000\000\000\000\000\000\000\000\000\000\000\000\000\000\000\224Fge2\223\222?\000\000\000\000\000\000\000\000\000\000\000\000\000\000\000\000\000\000\000\000\000\000\000\000\224Fge2\223\222?\000\000\000\000\000\000\000\000\000\000\000\000\000\000\000\000\000\000\000\000\000\000\000\000\224Fge2\223\222?\000\000\000\000\000\000\000\000\000\000\000\000\000\000\000\000\000\000\000\000\000\000\000\000\224Fge2\223\222?\000\000\000\000\000\000\000\000\000\000\000\000\000\000\000\000\000\000\000\000\000\000\000\000\224Fge2\223\222?\000\000\000\000\000\000\000\000\000\000\000\000\000\000\000\000\000\000\000\000\000\000\000\000\224Fge2\223\222?\000\000\000\000\000\000\000\000\000\000\000\000\000\000\000\000\000\000\000\000\000\000\000\000\224Fge2\223\222?\000\000\000\000\000\000\000\000\000\000\000\000\000\000\000\000\000\000\000\000\000\000\000\000\224Fge2\223\222?\000\000\000\000\000\000\000\000\000\000\000\000\000\000\000\000\000\000\000\000\000\000\000\000\224Fge2\223\222?\000\000\000\000\000\000\000\000\000\000\000\000\000\000\000\000\000\000\000\000\000\000\000\000\224Fge2\223\222?\000\000\000\000\000\000\000\000\000\000\000\000\000\000\000\000\000\000\000\000\000\000\000\000\224Fge2\223\222?\000\000\000\000\000\000\000\000\000\000\000\000\000\000\000\000\000\000\000\000\000\000\000\000\224Fge2\223\222?\000\000\000\000\000\000\000\000\000\000\000\000\000\000\000\000\000\000\000\000\000\000\000\000\224Fge2\223\222?\000\000\000\000\000\000\000\000\000\000\000\000\000\000\000\000\000\000\000\000\000\000\000\000\224Fge2\223\222?\000\000\000\000\000\000\000\000\000\000\000\000\000\000\000\000\000\000\000\000\000\000\000\000\224Fge2\223\222?\000\000\000\000\000\000\000\000\000\000\000\000\000\000\000\000\000\000\000\000\000\000\000\000\224Fge2\223\222?\000\000\000\000\000\000\000\000\000\000\000\000\000\000\000\000\000\000\000\000\000\000\000\000\224Fge2\223\222?\000\000\000\000\000\000\000\000\000\000\000\000\000\000\000\000\000\000\000\000\000\000\000\000\224Fge2\223\222?\000\000\000\000\000\000\000\000\000\000\000\000\000\000\000\000\000\000\000\000\000\000\000\000\224Fge2\223\222?\000\000\000\000\000\000\000\000\000\000\000\000\000\000\000\000\000\000\000\000\000\000\000\000\224Fge2\223\222?\000\000\000\000\000\000\000\000\000\000\000\000\000\000\000\000\000\000\000\000\000\000\000\000\224Fge2\223\222?\000\000\000\000\000\000\000\000\000\000\000\000\000\000\000\000\000\000\000\000\000\000\000\000\224Fge2\223\222?\000\000\000\000\000\000\000\000\000\000\000\000\000\000\000\000\000\000\000\000\000\000\000\000\224Fge2\223\222?\000\000\000\000\000\000\000\000\000\000\000\000\000\000\000\000\000\000\000\000\000\000\000\000\224Fge2\223\222?\000\000\000\000\000\000\000\000\000\000\000\000\000\000\000\000\000\000\000\000\000\000\000\000\224Fge2\223\222?\000\000\000\000\000\000\000\000\000\000\000\000\000\000\000\000\000\000\000\000\000\000\000\000\224Fge2\223\222?\000\000\000\000\000\000\000\000\000\000\000\000\000\000\000\000\000\000\000\000\000\000\000\000\224Fge2\223\222?\000\000\000\000\000\000\000\000\000\000\000\000\000\000\000\000\000\000\000\000\000\000\000\000\224Fge2\223\222?\000\000\000\000\000\000\000\000\000\000\000\000\000\000\000\000\000\000\000\000\000\000\000\000\224Fge2\223\222?\000\000\000\000\000\000\000\000\000\000\000\000\000\000\000\000\000\000\000\000\000\000\000\000\224Fge2\223\222?\000\000\000\000\000\000\000\000\000\000\000\000\000\000\000\000\000\000\000\000\000\000\000\000\224Fge2\223\222?\000\000\000\000\000\000\000\000\000\000\000\000\000\000\000\000\000\000\000\000\000\000\000\000\224Fge2\223\222?\000\000\000\000\000\000\000\000\000\000\000\000\000\000\000\000\000\000\000\000\000\000\000\000\224Fge2\223\222?\000\000\000\000\000\000\000\000\000\000\000\000\000\000\000\000\000\000\000\000\000\000\000\000\224Fge2\223\222?\000\000\000\000\000\000\000\000\000\000\000\000\000\000\000\000\000\000\000\000\000\000\000\000\224Fge2\223\222?\000\000\000\000\000\000\000\000\000\000\000\000\000\000\000\000\000\000\000\000\000\000\000\000\224Fge2\223\222?\000\000\000\000\000\000\000\000\000\000\000\000\000\000\000\000\000\000\000\000\000\000\000\000\224Fge2\223\222?\000\000\000\000\000\000\000\000\000\000\000\000\000\000\000\000\000\000\000\000\000\000\000\000\224Fge2\223\222?\000\000\000\000\000\000\000\000\000\000\000\000\000\000\000\000\000\000\000\000\000\000\000\000\224Fge2\223\222?\000\000\000\000\000\000\000\000\000\000\000\000\000\000\000\000\000\000\000\000\000\000\000\000\224Fge2\223\222?\000\000\000\000\000\000\000\000\000\000\000\000\000\000\000\000\000\000\000\000\000\000\000\000\224Fge2\223\222?\000\000\000\000\000\000\000\000\000\000\000\000\000\000\000\000\000\000\000\000\000\000\000\000\224Fge2\223\222?\000\000\000\000\000\000\000\000\000\000\000\000\000\000\000\000\000\000\000\000\000\000\000\000\224Fge2\223\222?\000\000\000\000\000\000\000\000\000\000\000\000\000\000\000\000\000\000\000\000\000\000\000\000\224Fge2\223\222?\000\000\000\000\000\000\000\000\000\000\000\000\000\000\000\000\000\000\000\000\000\000\000\000\224Fge2\223\222?\000\000\000\000\000\000\000\000\000\000\000\000\000\000\000\000\000\000\000\000\000\000\000\000\224Fge2\223\222?\000\000\000\000\000\000\000\000\000\000\000\000\000\000\000\000\000\000\000\000\000\000\000\000\224Fge2\223\222?\000\000\000\000\000\000\000\000\000\000\000\000\000\000\000\000\000\000\000\000\000\000\000\000\224Fge2\223\222?\000\000\000\000\000\000\000\000\000\000\000\000\000\000\000\000\000\000\000\000\000\000\000\000\224Fge2\223\222?\000\000\000\000\000\000\000\000\000\000\000\000\000\000\000\000\000\000\000\000\000\000\000\000\224Fge2\223\222?\000\000\000\000\000\000\000\000\000\000\000\000\000\000\000\000\000\000\000\000\000\000\000\000\224Fge2\223\222?\000\000\000\000\000\000\000\000\000\000\000\000\000\000\000\000\000\000\000\000\000\000\000\000\224Fge2\223\222?\000\000\000\000\000\000\000\000\000\000\000\000\000\000\000\000\000\000\000\000\000\000\000\000\224Fge2\223\222?\000\000\000\000\000\000\000\000\000\000\000\000\000\000\000\000\000\000\000\000\000\000\000\000\224Fge2\223\222?\000\000\000\000\000\000\000\000\000\000\000\000\000\000\000\000\000\000\000\000\000\000\000\000\224Fge2\223\222?\000\000\000\000\000\000\000\000\000\000\000\000\000\000\000\000\000\000\000\000\000\000\000\000\224Fge2\223\222?\000\000\000\000\000\000\000\000\000\000\000\000\000\000\000\000\000\000\000\000\000\000\000\000\224Fge2\223\222?\000\000\000\000\000\000\000\000\000\000\000\000\000\000\000\000\000\000\000\000\000\000\000\000\224Fge2\223\222?\000\000\000\000\000\000\000\000\000\000\000\000\000\000\000\000\000\000\000\000\000\000\000\000\224Fge2\223\222?\000\000\000\000\000\000\000\000\000\000\000\000\000\000\000\000\000\000\000\000\000\000\000\000\224Fge2\223\222?\000\000\000\000\000\000\000\000\000\000\000\000\000\000\000\000\000\000\000\000\000\000\000\000\224Fge2\223\222?\000\000\000\000\000\000\000\000\000\000\000\000\000\000\000\000\000\000\000\000\000\000\000\000\224Fge2\223\222?\000\000\000\000\000\000\000\000\000\000\000\000\000\000\000\000\000\000\000\000\000\000\000\000\224Fge2\223\222?\000\000\000\000\000\000\000\000\000\000\000\000\000\000\000\000\000\000\000\000\000\000\000\000\224Fge2\223\222?\000\000\000\000\000\000\000\000\000\000\000\000\000\000\000\000\000\000\000\000\000\000\000\000\224Fge2\223\222?\000\000\000\000\000\000\000\000\000\000\000\000\000\000\000\000\000\000\000\000\000\000\000\000\224Fge2\223\222?\000\000\000\000\000\000\000\000\000\000\000\000\000\000\000\000\000\000\000\000\000\000\000\000\224Fge2\223\222?\000\000\000\000\000\000\000\000\000\000\000\000\000\000\000\000\000\000\000\000\000\000\000\000\224Fge2\223\222?\000\000\000\000\000\000\000\000\000\000\000\000\000\000\000\000\000\000\000\000\000\000\000\000\224Fge2\223\222?\000\000\000\000\000\000\000\000\000\000\000\000\000\000\000\000\000\000\000\000\000\000\000\000\224Fge2\223\222?\000\000\000\000\000\000\000\000\000\000\000\000\000\000\000\000\000\000\000\000\000\000\000\000\224Fge2\223\222?\000\000\000\000\000\000\000\000\000\000\000\000\000\000\000\000\000\000\000\000\000\000\000\000\224Fge2\223\222?\000\000\000\000\000\000\000\000\000\000\000\000\000\000\000\000\000\000\000\000\000\000\000\000\224Fge2\223\222?\000\000\000\000\000\000\000\000\000\000\000\000\000\000\000\000\000\000\000\000\000\000\000\000\224Fge2\223\222?\000\000\000\000\000\000\000\000\000\000\000\000\000\000\000\000\000\000\000\000\000\000\000\000\224Fge2\223\222?\000\000\000\000\000\000\000\000\000\000\000\000\000\000\000\000\000\000\000\000\000\000\000\000\224Fge2\223\222?\000\000\000\000\000\000\000\000\000\000\000\000\000\000\000\000\000\000\000\000\000\000\000\000\224Fge2\223\222?\000\000\000\000\000\000\000\000\000\000\000\000\000\000\000\000\000\000\000\000\000\000\000\000\224Fge2\223\222?\000\000\000\000\000\000\000\000\000\000\000\000\000\000\000\000\000\000\000\000\000\000\000\000\224Fge2\223\222?\000\000\000\000\000\000\000\000\000\000\000\000\000\000\000\000\000\000\000\000\000\000\000\000\224Fge2\223\222?\000\000\000\000\000\000\000\000\000\000\000\000\000\000\000\000\000\000\000\000\000\000\000\000\224Fge2\223\222?\000\000\000\000\000\000\000\000\000\000\000\000\000\000\000\000\000\000\000\000\000\000\000\000\224Fge2\223\222?\000\000\000\000\000\000\000\000\000\000\000\000\000\000\000\000\000\000\000\000\000\000\000\000\224Fge2\223\222?\000\000\000\000\000\000\000\000\000\000\000\000\000\000\000\000\000\000\000\000\000\000\000\000\224Fge2\223\222?\000\000\000\000\000\000\000\000\000\000\000\000\000\000\000\000\000\000\000\000\000\000\000\000\224Fge2\223\222?\000\000\000\000\000\000\000\000\000\000\000\000\000\000\000\000\000\000\000\000\000\000\000\000\224Fge2\223\222?\000\000\000\000\000\000\000\000\000\000\000\000\000\000\000\000\000\000\000\000\000\000\000\000\224Fge2\223\222?\000\000\000\000\000\000\000\000\000\000\000\000\000\000\000\000\000\000\000\000\000\000\000\000\224Fge2\223\222?\000\000\000\000\000\000\000\000\000\000\000\000\000\000\000\000\000\000\000\000\000\000\000\000\224Fge2\223\222?\000\000\000\000\000\000\000\000\000\000\000\000\000\000\000\000\000\000\000\000\000\000\000\000\224Fge2\223\222?\000\000\000\000\000\000\000\000\000\000\000\000\000\000\000\000\000\000\000\000\000\000\000\000\224Fge2\223\222?\000\000\000\000\000\000\000\000\000\000\000\000\000\000\000\000\000\000\000\000\000\000\000\000\224Fge2\223\222?\000\000\000\000\000\000\000\000\000\000\000\000\000\000\000\000\000\000\000\000\000\000\000\000\224Fge2\223\222?\000\000\000\000\000\000\000\000\000\000\000\000\000\000\000\000\000\000\000\000\000\000\000\000\224Fge2\223\222?\000\000\000\000\000\000\000\000\000\000\000\000\000\000\000\000\000\000\000\000\000\000\000\000\224Fge2\223\222?\000\000\000\000\000\000\000\000\000\000\000\000\000\000\000\000\000\000\000\000\000\000\000\000\224Fge2\223\222?\000\000\000\000\000\000\000\000\000\000\000\000\000\000\000\000\000\000\000\000\000\000\000\000\224Fge2\223\222?\000\000\000\000\000\000\000\000\000\000\000\000\000\000\000\000\000\000\000\000\000\000\000\000\224Fge2\223\222?\000\000\000\000\000\000\000\000\000\000\000\000\000\000\000\000\000\000\000\000\000\000\000\000\224Fge2\223\222?\000\000\000\000\000\000\000\000\000\000\000\000\000\000\000\000\000\000\000\000\000\000\000\000\224Fge2\223\222?\000\000\000\000\000\000\000\000\000\000\000\000\000\000\000\000\000\000\000\000\000\000\000\000\224Fge2\223\222?\000\000\000\000\000\000\000\000\000\000\000\000\000\000\000\000\000\000\000\000\000\000\000\000\224Fge2\223\222?\000\000\000\000\000\000\000\000\000\000\000\000\000\000\000\000\000\000\000\000\000\000\000\000\224Fge2\223\222?\000\000\000\000\000\000\000\000\000\000\000\000\000\000\000\000\000\000\000\000\000\000\000\000\224Fge2\223\222?\000\000\000\000\000\000\000\000\000\000\000\000\000\000\000\000\000\000\000\000\000\000\000\000\224Fge2\223\222?\000\000\000\000\000\000\000\000\000\000\000\000\000\000\000\000\000\000\000\000\000\000\000\000\224Fge2\223\222?\000\000\000\000\000\000\000\000\000\000\000\000\000\000\000\000\000\000\000\000\000\000\000\000\224Fge2\223\222?\000\000\000\000\000\000\000\000\000\000\000\000\000\000\000\000\000\000\000\000\000\000\000\000\224Fge2\223\222?\000\000\000\000\000\000\000\000\000\000\000\000\000\000\000\000\000\000\000\000\000\000\000\000\224Fge2\223\222?\000\000\000\000\000\000\000\000\000\000\000\000\000\000\000\000\000\000\000\000\000\000\000\000\224Fge2\223\222?\000\000\000\000\000\000\000\000\000\000\000\000\000\000\000\000\000\000\000\000\000\000\000\000\224Fge2\223\222?\000\000\000\000\000\000\000\000\000\000\000\000\000\000\000\000\000\000\000\000\000\000\000\000\224Fge2\223\222?\000\000\000\000\000\000\000\000\000\000\000\000\000\000\000\000\000\000\000\000\000\000\000\000\224Fge2\223\222?\000\000\000\000\000\000\000\000\000\000\000\000\000\000\000\000\000\000\000\000\000\000\000\000\224Fge2\223\222?\000\000\000\000\000\000\000\000\000\000\000\000\000\000\000\000\000\000\000\000\000\000\000\000\224Fge2\223\222?\000\000\000\000\000\000\000\000\000\000\000\000\000\000\000\000\000\000\000\000\000\000\000\000\224Fge2\223\222?\000\000\000\000\000\000\000\000\000\000\000\000\000\000\000\000\000\000\000\000\000\000\000\000\224Fge2\223\222?\000\000\000\000\000\000\000\000\000\000\000\000\000\000\000\000\000\000\000\000\000\000\000\000\224Fge2\223\222?\000\000\000\000\000\000\000\000\000\000\000\000\000\000\000\000\000\000\000\000\000\000\000\000\224Fge2\223\222?\000\000\000\000\000\000\000\000\000\000\000\000\000\000\000\000\000\000\000\000\000\000\000\000\224Fge2\223\222?\000\000\000\000\000\000\000\000\000\000\000\000\000\000\000\000\000\000\000\000\000\000\000\000\224Fge2\223\222?\000\000\000\000\000\000\000\000\000\000\000\000\000\000\000\000\000\000\000\000\000\000\000\000"
      }
    }
  }
}
node {
  name: "descrpt_attr/t_avg/read"
  op: "Identity"
  input: "descrpt_attr/t_avg"
  attr {
    key: "T"
    value {
      type: DT_DOUBLE
    }
  }
  attr {
    key: "_class"
    value {
      list {
        s: "loc:@descrpt_attr/t_avg"
      }
    }
  }
}
node {
  name: "descrpt_attr/t_std"
  op: "Const"
  attr {
    key: "dtype"
    value {
      type: DT_DOUBLE
    }
  }
  attr {
    key: "value"
    value {
      tensor {
        dtype: DT_DOUBLE
        tensor_shape {
          dim {
            size: 2
          }
          dim {
            size: 552
          }
        }
        tensor_content: "W\005(\263\033\232\277?\006[\261\026\252\200\262?\006[\261\026\252\200\262?\006[\261\026\252\200\262?W\005(\263\033\232\277?\006[\261\026\252\200\262?\006[\261\026\252\200\262?\006[\261\026\252\200\262?W\005(\263\033\232\277?\006[\261\026\252\200\262?\006[\261\026\252\200\262?\006[\261\026\252\200\262?W\005(\263\033\232\277?\006[\261\026\252\200\262?\006[\261\026\252\200\262?\006[\261\026\252\200\262?W\005(\263\033\232\277?\006[\261\026\252\200\262?\006[\261\026\252\200\262?\006[\261\026\252\200\262?W\005(\263\033\232\277?\006[\261\026\252\200\262?\006[\261\026\252\200\262?\006[\261\026\252\200\262?W\005(\263\033\232\277?\006[\261\026\252\200\262?\006[\261\026\252\200\262?\006[\261\026\252\200\262?W\005(\263\033\232\277?\006[\261\026\252\200\262?\006[\261\026\252\200\262?\006[\261\026\252\200\262?W\005(\263\033\232\277?\006[\261\026\252\200\262?\006[\261\026\252\200\262?\006[\261\026\252\200\262?W\005(\263\033\232\277?\006[\261\026\252\200\262?\006[\261\026\252\200\262?\006[\261\026\252\200\262?W\005(\263\033\232\277?\006[\261\026\252\200\262?\006[\261\026\252\200\262?\006[\261\026\252\200\262?W\005(\263\033\232\277?\006[\261\026\252\200\262?\006[\261\026\252\200\262?\006[\261\026\252\200\262?W\005(\263\033\232\277?\006[\261\026\252\200\262?\006[\261\026\252\200\262?\006[\261\026\252\200\262?W\005(\263\033\232\277?\006[\261\026\252\200\262?\006[\261\026\252\200\262?\006[\261\026\252\200\262?W\005(\263\033\232\277?\006[\261\026\252\200\262?\006[\261\026\252\200\262?\006[\261\026\252\200\262?W\005(\263\033\232\277?\006[\261\026\252\200\262?\006[\261\026\252\200\262?\006[\261\026\252\200\262?W\005(\263\033\232\277?\006[\261\026\252\200\262?\006[\261\026\252\200\262?\006[\261\026\252\200\262?W\005(\263\033\232\277?\006[\261\026\252\200\262?\006[\261\026\252\200\262?\006[\261\026\252\200\262?W\005(\263\033\232\277?\006[\261\026\252\200\262?\006[\261\026\252\200\262?\006[\261\026\252\200\262?W\005(\263\033\232\277?\006[\261\026\252\200\262?\006[\261\026\252\200\262?\006[\261\026\252\200\262?W\005(\263\033\232\277?\006[\261\026\252\200\262?\006[\261\026\252\200\262?\006[\261\026\252\200\262?W\005(\263\033\232\277?\006[\261\026\252\200\262?\006[\261\026\252\200\262?\006[\261\026\252\200\262?W\005(\263\033\232\277?\006[\261\026\252\200\262?\006[\261\026\252\200\262?\006[\261\026\252\200\262?W\005(\263\033\232\277?\006[\261\026\252\200\262?\006[\261\026\252\200\262?\006[\261\026\252\200\262?W\005(\263\033\232\277?\006[\261\026\252\200\262?\006[\261\026\252\200\262?\006[\261\026\252\200\262?W\005(\263\033\232\277?\006[\261\026\252\200\262?\006[\261\026\252\200\262?\006[\261\026\252\200\262?W\005(\263\033\232\277?\006[\261\026\252\200\262?\006[\261\026\252\200\262?\006[\261\026\252\200\262?W\005(\263\033\232\277?\006[\261\026\252\200\262?\006[\261\026\252\200\262?\006[\261\026\252\200\262?W\005(\263\033\232\277?\006[\261\026\252\200\262?\006[\261\026\252\200\262?\006[\261\026\252\200\262?W\005(\263\033\232\277?\006[\261\026\252\200\262?\006[\261\026\252\200\262?\006[\261\026\252\200\262?W\005(\263\033\232\277?\006[\261\026\252\200\262?\006[\261\026\252\200\262?\006[\261\026\252\200\262?W\005(\263\033\232\277?\006[\261\026\252\200\262?\006[\261\026\252\200\262?\006[\261\026\252\200\262?W\005(\263\033\232\277?\006[\261\026\252\200\262?\006[\261\026\252\200\262?\006[\261\026\252\200\262?W\005(\263\033\232\277?\006[\261\026\252\200\262?\006[\261\026\252\200\262?\006[\261\026\252\200\262?W\005(\263\033\232\277?\006[\261\026\252\200\262?\006[\261\026\252\200\262?\006[\261\026\252\200\262?W\005(\263\033\232\277?\006[\261\026\252\200\262?\006[\261\026\252\200\262?\006[\261\026\252\200\262?W\005(\263\033\232\277?\006[\261\026\252\200\262?\006[\261\026\252\200\262?\006[\261\026\252\200\262?W\005(\263\033\232\277?\006[\261\026\252\200\262?\006[\261\026\252\200\262?\006[\261\026\252\200\262?W\005(\263\033\232\277?\006[\261\026\252\200\262?\006[\261\026\252\200\262?\006[\261\026\252\200\262?W\005(\263\033\232\277?\006[\261\026\252\200\262?\006[\261\026\252\200\262?\006[\261\026\252\200\262?W\005(\263\033\232\277?\006[\261\026\252\200\262?\006[\261\026\252\200\262?\006[\261\026\252\200\262?W\005(\263\033\232\277?\006[\261\026\252\200\262?\006[\261\026\252\200\262?\006[\261\026\252\200\262?W\005(\263\033\232\277?\006[\261\026\252\200\262?\006[\261\026\252\200\262?\006[\261\026\252\200\262?W\005(\263\033\232\277?\006[\261\026\252\200\262?\006[\261\026\252\200\262?\006[\261\026\252\200\262?W\005(\263\033\232\277?\006[\261\026\252\200\262?\006[\261\026\252\200\262?\006[\261\026\252\200\262?W\005(\263\033\232\277?\006[\261\026\252\200\262?\006[\261\026\252\200\262?\006[\261\026\252\200\262?W\005(\263\033\232\277?\006[\261\026\252\200\262?\006[\261\026\252\200\262?\006[\261\026\252\200\262?W\005(\263\033\232\277?\006[\261\026\252\200\262?\006[\261\026\252\200\262?\006[\261\026\252\200\262?W\005(\263\033\232\277?\006[\261\026\252\200\262?\006[\261\026\252\200\262?\006[\261\026\252\200\262?W\005(\263\033\232\277?\006[\261\026\252\200\262?\006[\261\026\252\200\262?\006[\261\026\252\200\262?W\005(\263\033\232\277?\006[\261\026\252\200\262?\006[\261\026\252\200\262?\006[\261\026\252\200\262?W\005(\263\033\232\277?\006[\261\026\252\200\262?\006[\261\026\252\200\262?\006[\261\026\252\200\262?W\005(\263\033\232\277?\006[\261\026\252\200\262?\006[\261\026\252\200\262?\006[\261\026\252\200\262?W\005(\263\033\232\277?\006[\261\026\252\200\262?\006[\261\026\252\200\262?\006[\261\026\252\200\262?W\005(\263\033\232\277?\006[\261\026\252\200\262?\006[\261\026\252\200\262?\006[\261\026\252\200\262?W\005(\263\033\232\277?\006[\261\026\252\200\262?\006[\261\026\252\200\262?\006[\261\026\252\200\262?W\005(\263\033\232\277?\006[\261\026\252\200\262?\006[\261\026\252\200\262?\006[\261\026\252\200\262?W\005(\263\033\232\277?\006[\261\026\252\200\262?\006[\261\026\252\200\262?\006[\261\026\252\200\262?W\005(\263\033\232\277?\006[\261\026\252\200\262?\006[\261\026\252\200\262?\006[\261\026\252\200\262?W\005(\263\033\232\277?\006[\261\026\252\200\262?\006[\261\026\252\200\262?\006[\261\026\252\200\262?W\005(\263\033\232\277?\006[\261\026\252\200\262?\006[\261\026\252\200\262?\006[\261\026\252\200\262?W\005(\263\033\232\277?\006[\261\026\252\200\262?\006[\261\026\252\200\262?\006[\261\026\252\200\262?W\005(\263\033\232\277?\006[\261\026\252\200\262?\006[\261\026\252\200\262?\006[\261\026\252\200\262?W\005(\263\033\232\277?\006[\261\026\252\200\262?\006[\261\026\252\200\262?\006[\261\026\252\200\262?W\005(\263\033\232\277?\006[\261\026\252\200\262?\006[\261\026\252\200\262?\006[\261\026\252\200\262?W\005(\263\033\232\277?\006[\261\026\252\200\262?\006[\261\026\252\200\262?\006[\261\026\252\200\262?W\005(\263\033\232\277?\006[\261\026\252\200\262?\006[\261\026\252\200\262?\006[\261\026\252\200\262?W\005(\263\033\232\277?\006[\261\026\252\200\262?\006[\261\026\252\200\262?\006[\261\026\252\200\262?W\005(\263\033\232\277?\006[\261\026\252\200\262?\006[\261\026\252\200\262?\006[\261\026\252\200\262?W\005(\263\033\232\277?\006[\261\026\252\200\262?\006[\261\026\252\200\262?\006[\261\026\252\200\262?W\005(\263\033\232\277?\006[\261\026\252\200\262?\006[\261\026\252\200\262?\006[\261\026\252\200\262?W\005(\263\033\232\277?\006[\261\026\252\200\262?\006[\261\026\252\200\262?\006[\261\026\252\200\262?W\005(\263\033\232\277?\006[\261\026\252\200\262?\006[\261\026\252\200\262?\006[\261\026\252\200\262?W\005(\263\033\232\277?\006[\261\026\252\200\262?\006[\261\026\252\200\262?\006[\261\026\252\200\262?W\005(\263\033\232\277?\006[\261\026\252\200\262?\006[\261\026\252\200\262?\006[\261\026\252\200\262?W\005(\263\033\232\277?\006[\261\026\252\200\262?\006[\261\026\252\200\262?\006[\261\026\252\200\262?W\005(\263\033\232\277?\006[\261\026\252\200\262?\006[\261\026\252\200\262?\006[\261\026\252\200\262?W\005(\263\033\232\277?\006[\261\026\252\200\262?\006[\261\026\252\200\262?\006[\261\026\252\200\262?W\005(\263\033\232\277?\006[\261\026\252\200\262?\006[\261\026\252\200\262?\006[\261\026\252\200\262?W\005(\263\033\232\277?\006[\261\026\252\200\262?\006[\261\026\252\200\262?\006[\261\026\252\200\262?W\005(\263\033\232\277?\006[\261\026\252\200\262?\006[\261\026\252\200\262?\006[\261\026\252\200\262?W\005(\263\033\232\277?\006[\261\026\252\200\262?\006[\261\026\252\200\262?\006[\261\026\252\200\262?W\005(\263\033\232\277?\006[\261\026\252\200\262?\006[\261\026\252\200\262?\006[\261\026\252\200\262?W\005(\263\033\232\277?\006[\261\026\252\200\262?\006[\261\026\252\200\262?\006[\261\026\252\200\262?W\005(\263\033\232\277?\006[\261\026\252\200\262?\006[\261\026\252\200\262?\006[\261\026\252\200\262?W\005(\263\033\232\277?\006[\261\026\252\200\262?\006[\261\026\252\200\262?\006[\261\026\252\200\262?W\005(\263\033\232\277?\006[\261\026\252\200\262?\006[\261\026\252\200\262?\006[\261\026\252\200\262?W\005(\263\033\232\277?\006[\261\026\252\200\262?\006[\261\026\252\200\262?\006[\261\026\252\200\262?W\005(\263\033\232\277?\006[\261\026\252\200\262?\006[\261\026\252\200\262?\006[\261\026\252\200\262?W\005(\263\033\232\277?\006[\261\026\252\200\262?\006[\261\026\252\200\262?\006[\261\026\252\200\262?W\005(\263\033\232\277?\006[\261\026\252\200\262?\006[\261\026\252\200\262?\006[\261\026\252\200\262?W\005(\263\033\232\277?\006[\261\026\252\200\262?\006[\261\026\252\200\262?\006[\261\026\252\200\262?W\005(\263\033\232\277?\006[\261\026\252\200\262?\006[\261\026\252\200\262?\006[\261\026\252\200\262?W\005(\263\033\232\277?\006[\261\026\252\200\262?\006[\261\026\252\200\262?\006[\261\026\252\200\262?W\005(\263\033\232\277?\006[\261\026\252\200\262?\006[\261\026\252\200\262?\006[\261\026\252\200\262?W\005(\263\033\232\277?\006[\261\026\252\200\262?\006[\261\026\252\200\262?\006[\261\026\252\200\262?W\005(\263\033\232\277?\006[\261\026\252\200\262?\006[\261\026\252\200\262?\006[\261\026\252\200\262?W\005(\263\033\232\277?\006[\261\026\252\200\262?\006[\261\026\252\200\262?\006[\261\026\252\200\262?W\005(\263\033\232\277?\006[\261\026\252\200\262?\006[\261\026\252\200\262?\006[\261\026\252\200\262?W\005(\263\033\232\277?\006[\261\026\252\200\262?\006[\261\026\252\200\262?\006[\261\026\252\200\262?W\005(\263\033\232\277?\006[\261\026\252\200\262?\006[\261\026\252\200\262?\006[\261\026\252\200\262?W\005(\263\033\232\277?\006[\261\026\252\200\262?\006[\261\026\252\200\262?\006[\261\026\252\200\262?W\005(\263\033\232\277?\006[\261\026\252\200\262?\006[\261\026\252\200\262?\006[\261\026\252\200\262?W\005(\263\033\232\277?\006[\261\026\252\200\262?\006[\261\026\252\200\262?\006[\261\026\252\200\262?W\005(\263\033\232\277?\006[\261\026\252\200\262?\006[\261\026\252\200\262?\006[\261\026\252\200\262?W\005(\263\033\232\277?\006[\261\026\252\200\262?\006[\261\026\252\200\262?\006[\261\026\252\200\262?W\005(\263\033\232\277?\006[\261\026\252\200\262?\006[\261\026\252\200\262?\006[\261\026\252\200\262?W\005(\263\033\232\277?\006[\261\026\252\200\262?\006[\261\026\252\200\262?\006[\261\026\252\200\262?W\005(\263\033\232\277?\006[\261\026\252\200\262?\006[\261\026\252\200\262?\006[\261\026\252\200\262?W\005(\263\033\232\277?\006[\261\026\252\200\262?\006[\261\026\252\200\262?\006[\261\026\252\200\262?W\005(\263\033\232\277?\006[\261\026\252\200\262?\006[\261\026\252\200\262?\006[\261\026\252\200\262?W\005(\263\033\232\277?\006[\261\026\252\200\262?\006[\261\026\252\200\262?\006[\261\026\252\200\262?W\005(\263\033\232\277?\006[\261\026\252\200\262?\006[\261\026\252\200\262?\006[\261\026\252\200\262?W\005(\263\033\232\277?\006[\261\026\252\200\262?\006[\261\026\252\200\262?\006[\261\026\252\200\262?W\005(\263\033\232\277?\006[\261\026\252\200\262?\006[\261\026\252\200\262?\006[\261\026\252\200\262?W\005(\263\033\232\277?\006[\261\026\252\200\262?\006[\261\026\252\200\262?\006[\261\026\252\200\262?W\005(\263\033\232\277?\006[\261\026\252\200\262?\006[\261\026\252\200\262?\006[\261\026\252\200\262?W\005(\263\033\232\277?\006[\261\026\252\200\262?\006[\261\026\252\200\262?\006[\261\026\252\200\262?W\005(\263\033\232\277?\006[\261\026\252\200\262?\006[\261\026\252\200\262?\006[\261\026\252\200\262?W\005(\263\033\232\277?\006[\261\026\252\200\262?\006[\261\026\252\200\262?\006[\261\026\252\200\262?W\005(\263\033\232\277?\006[\261\026\252\200\262?\006[\261\026\252\200\262?\006[\261\026\252\200\262?W\005(\263\033\232\277?\006[\261\026\252\200\262?\006[\261\026\252\200\262?\006[\261\026\252\200\262?W\005(\263\033\232\277?\006[\261\026\252\200\262?\006[\261\026\252\200\262?\006[\261\026\252\200\262?W\005(\263\033\232\277?\006[\261\026\252\200\262?\006[\261\026\252\200\262?\006[\261\026\252\200\262?W\005(\263\033\232\277?\006[\261\026\252\200\262?\006[\261\026\252\200\262?\006[\261\026\252\200\262?W\005(\263\033\232\277?\006[\261\026\252\200\262?\006[\261\026\252\200\262?\006[\261\026\252\200\262?W\005(\263\033\232\277?\006[\261\026\252\200\262?\006[\261\026\252\200\262?\006[\261\026\252\200\262?W\005(\263\033\232\277?\006[\261\026\252\200\262?\006[\261\026\252\200\262?\006[\261\026\252\200\262?W\005(\263\033\232\277?\006[\261\026\252\200\262?\006[\261\026\252\200\262?\006[\261\026\252\200\262?W\005(\263\033\232\277?\006[\261\026\252\200\262?\006[\261\026\252\200\262?\006[\261\026\252\200\262?W\005(\263\033\232\277?\006[\261\026\252\200\262?\006[\261\026\252\200\262?\006[\261\026\252\200\262?W\005(\263\033\232\277?\006[\261\026\252\200\262?\006[\261\026\252\200\262?\006[\261\026\252\200\262?W\005(\263\033\232\277?\006[\261\026\252\200\262?\006[\261\026\252\200\262?\006[\261\026\252\200\262?W\005(\263\033\232\277?\006[\261\026\252\200\262?\006[\261\026\252\200\262?\006[\261\026\252\200\262?W\005(\263\033\232\277?\006[\261\026\252\200\262?\006[\261\026\252\200\262?\006[\261\026\252\200\262?W\005(\263\033\232\277?\006[\261\026\252\200\262?\006[\261\026\252\200\262?\006[\261\026\252\200\262?W\005(\263\033\232\277?\006[\261\026\252\200\262?\006[\261\026\252\200\262?\006[\261\026\252\200\262?W\005(\263\033\232\277?\006[\261\026\252\200\262?\006[\261\026\252\200\262?\006[\261\026\252\200\262?S\313\177\324\370\n\272?\375\037\217\031\226\213\256?\375\037\217\031\226\213\256?\375\037\217\031\226\213\256?S\313\177\324\370\n\272?\375\037\217\031\226\213\256?\375\037\217\031\226\213\256?\375\037\217\031\226\213\256?S\313\177\324\370\n\272?\375\037\217\031\226\213\256?\375\037\217\031\226\213\256?\375\037\217\031\226\213\256?S\313\177\324\370\n\272?\375\037\217\031\226\213\256?\375\037\217\031\226\213\256?\375\037\217\031\226\213\256?S\313\177\324\370\n\272?\375\037\217\031\226\213\256?\375\037\217\031\226\213\256?\375\037\217\031\226\213\256?S\313\177\324\370\n\272?\375\037\217\031\226\213\256?\375\037\217\031\226\213\256?\375\037\217\031\226\213\256?S\313\177\324\370\n\272?\375\037\217\031\226\213\256?\375\037\217\031\226\213\256?\375\037\217\031\226\213\256?S\313\177\324\370\n\272?\375\037\217\031\226\213\256?\375\037\217\031\226\213\256?\375\037\217\031\226\213\256?S\313\177\324\370\n\272?\375\037\217\031\226\213\256?\375\037\217\031\226\213\256?\375\037\217\031\226\213\256?S\313\177\324\370\n\272?\375\037\217\031\226\213\256?\375\037\217\031\226\213\256?\375\037\217\031\226\213\256?S\313\177\324\370\n\272?\375\037\217\031\226\213\256?\375\037\217\031\226\213\256?\375\037\217\031\226\213\256?S\313\177\324\370\n\272?\375\037\217\031\226\213\256?\375\037\217\031\226\213\256?\375\037\217\031\226\213\256?S\313\177\324\370\n\272?\375\037\217\031\226\213\256?\375\037\217\031\226\213\256?\375\037\217\031\226\213\256?S\313\177\324\370\n\272?\375\037\217\031\226\213\256?\375\037\217\031\226\213\256?\375\037\217\031\226\213\256?S\313\177\324\370\n\272?\375\037\217\031\226\213\256?\375\037\217\031\226\213\256?\375\037\217\031\226\213\256?S\313\177\324\370\n\272?\375\037\217\031\226\213\256?\375\037\217\031\226\213\256?\375\037\217\031\226\213\256?S\313\177\324\370\n\272?\375\037\217\031\226\213\256?\375\037\217\031\226\213\256?\375\037\217\031\226\213\256?S\313\177\324\370\n\272?\375\037\217\031\226\213\256?\375\037\217\031\226\213\256?\375\037\217\031\226\213\256?S\313\177\324\370\n\272?\375\037\217\031\226\213\256?\375\037\217\031\226\213\256?\375\037\217\031\226\213\256?S\313\177\324\370\n\272?\375\037\217\031\226\213\256?\375\037\217\031\226\213\256?\375\037\217\031\226\213\256?S\313\177\324\370\n\272?\375\037\217\031\226\213\256?\375\037\217\031\226\213\256?\375\037\217\031\226\213\256?S\313\177\324\370\n\272?\375\037\217\031\226\213\256?\375\037\217\031\226\213\256?\375\037\217\031\226\213\256?S\313\177\324\370\n\272?\375\037\217\031\226\213\256?\375\037\217\031\226\213\256?\375\037\217\031\226\213\256?S\313\177\324\370\n\272?\375\037\217\031\226\213\256?\375\037\217\031\226\213\256?\375\037\217\031\226\213\256?S\313\177\324\370\n\272?\375\037\217\031\226\213\256?\375\037\217\031\226\213\256?\375\037\217\031\226\213\256?S\313\177\324\370\n\272?\375\037\217\031\226\213\256?\375\037\217\031\226\213\256?\375\037\217\031\226\213\256?S\313\177\324\370\n\272?\375\037\217\031\226\213\256?\375\037\217\031\226\213\256?\375\037\217\031\226\213\256?S\313\177\324\370\n\272?\375\037\217\031\226\213\256?\375\037\217\031\226\213\256?\375\037\217\031\226\213\256?S\313\177\324\370\n\272?\375\037\217\031\226\213\256?\375\037\217\031\226\213\256?\375\037\217\031\226\213\256?S\313\177\324\370\n\272?\375\037\217\031\226\213\256?\375\037\217\031\226\213\256?\375\037\217\031\226\213\256?S\313\177\324\370\n\272?\375\037\217\031\226\213\256?\375\037\217\031\226\213\256?\375\037\217\031\226\213\256?S\313\177\324\370\n\272?\375\037\217\031\226\213\256?\375\037\217\031\226\213\256?\375\037\217\031\226\213\256?S\313\177\324\370\n\272?\375\037\217\031\226\213\256?\375\037\217\031\226\213\256?\375\037\217\031\226\213\256?S\313\177\324\370\n\272?\375\037\217\031\226\213\256?\375\037\217\031\226\213\256?\375\037\217\031\226\213\256?S\313\177\324\370\n\272?\375\037\217\031\226\213\256?\375\037\217\031\226\213\256?\375\037\217\031\226\213\256?S\313\177\324\370\n\272?\375\037\217\031\226\213\256?\375\037\217\031\226\213\256?\375\037\217\031\226\213\256?S\313\177\324\370\n\272?\375\037\217\031\226\213\256?\375\037\217\031\226\213\256?\375\037\217\031\226\213\256?S\313\177\324\370\n\272?\375\037\217\031\226\213\256?\375\037\217\031\226\213\256?\375\037\217\031\226\213\256?S\313\177\324\370\n\272?\375\037\217\031\226\213\256?\375\037\217\031\226\213\256?\375\037\217\031\226\213\256?S\313\177\324\370\n\272?\375\037\217\031\226\213\256?\375\037\217\031\226\213\256?\375\037\217\031\226\213\256?S\313\177\324\370\n\272?\375\037\217\031\226\213\256?\375\037\217\031\226\213\256?\375\037\217\031\226\213\256?S\313\177\324\370\n\272?\375\037\217\031\226\213\256?\375\037\217\031\226\213\256?\375\037\217\031\226\213\256?S\313\177\324\370\n\272?\375\037\217\031\226\213\256?\375\037\217\031\226\213\256?\375\037\217\031\226\213\256?S\313\177\324\370\n\272?\375\037\217\031\226\213\256?\375\037\217\031\226\213\256?\375\037\217\031\226\213\256?S\313\177\324\370\n\272?\375\037\217\031\226\213\256?\375\037\217\031\226\213\256?\375\037\217\031\226\213\256?S\313\177\324\370\n\272?\375\037\217\031\226\213\256?\375\037\217\031\226\213\256?\375\037\217\031\226\213\256?S\313\177\324\370\n\272?\375\037\217\031\226\213\256?\375\037\217\031\226\213\256?\375\037\217\031\226\213\256?S\313\177\324\370\n\272?\375\037\217\031\226\213\256?\375\037\217\031\226\213\256?\375\037\217\031\226\213\256?S\313\177\324\370\n\272?\375\037\217\031\226\213\256?\375\037\217\031\226\213\256?\375\037\217\031\226\213\256?S\313\177\324\370\n\272?\375\037\217\031\226\213\256?\375\037\217\031\226\213\256?\375\037\217\031\226\213\256?S\313\177\324\370\n\272?\375\037\217\031\226\213\256?\375\037\217\031\226\213\256?\375\037\217\031\226\213\256?S\313\177\324\370\n\272?\375\037\217\031\226\213\256?\375\037\217\031\226\213\256?\375\037\217\031\226\213\256?S\313\177\324\370\n\272?\375\037\217\031\226\213\256?\375\037\217\031\226\213\256?\375\037\217\031\226\213\256?S\313\177\324\370\n\272?\375\037\217\031\226\213\256?\375\037\217\031\226\213\256?\375\037\217\031\226\213\256?S\313\177\324\370\n\272?\375\037\217\031\226\213\256?\375\037\217\031\226\213\256?\375\037\217\031\226\213\256?S\313\177\324\370\n\272?\375\037\217\031\226\213\256?\375\037\217\031\226\213\256?\375\037\217\031\226\213\256?S\313\177\324\370\n\272?\375\037\217\031\226\213\256?\375\037\217\031\226\213\256?\375\037\217\031\226\213\256?S\313\177\324\370\n\272?\375\037\217\031\226\213\256?\375\037\217\031\226\213\256?\375\037\217\031\226\213\256?S\313\177\324\370\n\272?\375\037\217\031\226\213\256?\375\037\217\031\226\213\256?\375\037\217\031\226\213\256?S\313\177\324\370\n\272?\375\037\217\031\226\213\256?\375\037\217\031\226\213\256?\375\037\217\031\226\213\256?S\313\177\324\370\n\272?\375\037\217\031\226\213\256?\375\037\217\031\226\213\256?\375\037\217\031\226\213\256?S\313\177\324\370\n\272?\375\037\217\031\226\213\256?\375\037\217\031\226\213\256?\375\037\217\031\226\213\256?S\313\177\324\370\n\272?\375\037\217\031\226\213\256?\375\037\217\031\226\213\256?\375\037\217\031\226\213\256?S\313\177\324\370\n\272?\375\037\217\031\226\213\256?\375\037\217\031\226\213\256?\375\037\217\031\226\213\256?S\313\177\324\370\n\272?\375\037\217\031\226\213\256?\375\037\217\031\226\213\256?\375\037\217\031\226\213\256?S\313\177\324\370\n\272?\375\037\217\031\226\213\256?\375\037\217\031\226\213\256?\375\037\217\031\226\213\256?S\313\177\324\370\n\272?\375\037\217\031\226\213\256?\375\037\217\031\226\213\256?\375\037\217\031\226\213\256?S\313\177\324\370\n\272?\375\037\217\031\226\213\256?\375\037\217\031\226\213\256?\375\037\217\031\226\213\256?S\313\177\324\370\n\272?\375\037\217\031\226\213\256?\375\037\217\031\226\213\256?\375\037\217\031\226\213\256?S\313\177\324\370\n\272?\375\037\217\031\226\213\256?\375\037\217\031\226\213\256?\375\037\217\031\226\213\256?S\313\177\324\370\n\272?\375\037\217\031\226\213\256?\375\037\217\031\226\213\256?\375\037\217\031\226\213\256?S\313\177\324\370\n\272?\375\037\217\031\226\213\256?\375\037\217\031\226\213\256?\375\037\217\031\226\213\256?S\313\177\324\370\n\272?\375\037\217\031\226\213\256?\375\037\217\031\226\213\256?\375\037\217\031\226\213\256?S\313\177\324\370\n\272?\375\037\217\031\226\213\256?\375\037\217\031\226\213\256?\375\037\217\031\226\213\256?S\313\177\324\370\n\272?\375\037\217\031\226\213\256?\375\037\217\031\226\213\256?\375\037\217\031\226\213\256?S\313\177\324\370\n\272?\375\037\217\031\226\213\256?\375\037\217\031\226\213\256?\375\037\217\031\226\213\256?S\313\177\324\370\n\272?\375\037\217\031\226\213\256?\375\037\217\031\226\213\256?\375\037\217\031\226\213\256?S\313\177\324\370\n\272?\375\037\217\031\226\213\256?\375\037\217\031\226\213\256?\375\037\217\031\226\213\256?S\313\177\324\370\n\272?\375\037\217\031\226\213\256?\375\037\217\031\226\213\256?\375\037\217\031\226\213\256?S\313\177\324\370\n\272?\375\037\217\031\226\213\256?\375\037\217\031\226\213\256?\375\037\217\031\226\213\256?S\313\177\324\370\n\272?\375\037\217\031\226\213\256?\375\037\217\031\226\213\256?\375\037\217\031\226\213\256?S\313\177\324\370\n\272?\375\037\217\031\226\213\256?\375\037\217\031\226\213\256?\375\037\217\031\226\213\256?S\313\177\324\370\n\272?\375\037\217\031\226\213\256?\375\037\217\031\226\213\256?\375\037\217\031\226\213\256?S\313\177\324\370\n\272?\375\037\217\031\226\213\256?\375\037\217\031\226\213\256?\375\037\217\031\226\213\256?S\313\177\324\370\n\272?\375\037\217\031\226\213\256?\375\037\217\031\226\213\256?\375\037\217\031\226\213\256?S\313\177\324\370\n\272?\375\037\217\031\226\213\256?\375\037\217\031\226\213\256?\375\037\217\031\226\213\256?S\313\177\324\370\n\272?\375\037\217\031\226\213\256?\375\037\217\031\226\213\256?\375\037\217\031\226\213\256?S\313\177\324\370\n\272?\375\037\217\031\226\213\256?\375\037\217\031\226\213\256?\375\037\217\031\226\213\256?S\313\177\324\370\n\272?\375\037\217\031\226\213\256?\375\037\217\031\226\213\256?\375\037\217\031\226\213\256?S\313\177\324\370\n\272?\375\037\217\031\226\213\256?\375\037\217\031\226\213\256?\375\037\217\031\226\213\256?S\313\177\324\370\n\272?\375\037\217\031\226\213\256?\375\037\217\031\226\213\256?\375\037\217\031\226\213\256?S\313\177\324\370\n\272?\375\037\217\031\226\213\256?\375\037\217\031\226\213\256?\375\037\217\031\226\213\256?S\313\177\324\370\n\272?\375\037\217\031\226\213\256?\375\037\217\031\226\213\256?\375\037\217\031\226\213\256?S\313\177\324\370\n\272?\375\037\217\031\226\213\256?\375\037\217\031\226\213\256?\375\037\217\031\226\213\256?S\313\177\324\370\n\272?\375\037\217\031\226\213\256?\375\037\217\031\226\213\256?\375\037\217\031\226\213\256?S\313\177\324\370\n\272?\375\037\217\031\226\213\256?\375\037\217\031\226\213\256?\375\037\217\031\226\213\256?S\313\177\324\370\n\272?\375\037\217\031\226\213\256?\375\037\217\031\226\213\256?\375\037\217\031\226\213\256?S\313\177\324\370\n\272?\375\037\217\031\226\213\256?\375\037\217\031\226\213\256?\375\037\217\031\226\213\256?S\313\177\324\370\n\272?\375\037\217\031\226\213\256?\375\037\217\031\226\213\256?\375\037\217\031\226\213\256?S\313\177\324\370\n\272?\375\037\217\031\226\213\256?\375\037\217\031\226\213\256?\375\037\217\031\226\213\256?S\313\177\324\370\n\272?\375\037\217\031\226\213\256?\375\037\217\031\226\213\256?\375\037\217\031\226\213\256?S\313\177\324\370\n\272?\375\037\217\031\226\213\256?\375\037\217\031\226\213\256?\375\037\217\031\226\213\256?S\313\177\324\370\n\272?\375\037\217\031\226\213\256?\375\037\217\031\226\213\256?\375\037\217\031\226\213\256?S\313\177\324\370\n\272?\375\037\217\031\226\213\256?\375\037\217\031\226\213\256?\375\037\217\031\226\213\256?S\313\177\324\370\n\272?\375\037\217\031\226\213\256?\375\037\217\031\226\213\256?\375\037\217\031\226\213\256?S\313\177\324\370\n\272?\375\037\217\031\226\213\256?\375\037\217\031\226\213\256?\375\037\217\031\226\213\256?S\313\177\324\370\n\272?\375\037\217\031\226\213\256?\375\037\217\031\226\213\256?\375\037\217\031\226\213\256?S\313\177\324\370\n\272?\375\037\217\031\226\213\256?\375\037\217\031\226\213\256?\375\037\217\031\226\213\256?S\313\177\324\370\n\272?\375\037\217\031\226\213\256?\375\037\217\031\226\213\256?\375\037\217\031\226\213\256?S\313\177\324\370\n\272?\375\037\217\031\226\213\256?\375\037\217\031\226\213\256?\375\037\217\031\226\213\256?S\313\177\324\370\n\272?\375\037\217\031\226\213\256?\375\037\217\031\226\213\256?\375\037\217\031\226\213\256?S\313\177\324\370\n\272?\375\037\217\031\226\213\256?\375\037\217\031\226\213\256?\375\037\217\031\226\213\256?S\313\177\324\370\n\272?\375\037\217\031\226\213\256?\375\037\217\031\226\213\256?\375\037\217\031\226\213\256?S\313\177\324\370\n\272?\375\037\217\031\226\213\256?\375\037\217\031\226\213\256?\375\037\217\031\226\213\256?S\313\177\324\370\n\272?\375\037\217\031\226\213\256?\375\037\217\031\226\213\256?\375\037\217\031\226\213\256?S\313\177\324\370\n\272?\375\037\217\031\226\213\256?\375\037\217\031\226\213\256?\375\037\217\031\226\213\256?S\313\177\324\370\n\272?\375\037\217\031\226\213\256?\375\037\217\031\226\213\256?\375\037\217\031\226\213\256?S\313\177\324\370\n\272?\375\037\217\031\226\213\256?\375\037\217\031\226\213\256?\375\037\217\031\226\213\256?S\313\177\324\370\n\272?\375\037\217\031\226\213\256?\375\037\217\031\226\213\256?\375\037\217\031\226\213\256?S\313\177\324\370\n\272?\375\037\217\031\226\213\256?\375\037\217\031\226\213\256?\375\037\217\031\226\213\256?S\313\177\324\370\n\272?\375\037\217\031\226\213\256?\375\037\217\031\226\213\256?\375\037\217\031\226\213\256?S\313\177\324\370\n\272?\375\037\217\031\226\213\256?\375\037\217\031\226\213\256?\375\037\217\031\226\213\256?S\313\177\324\370\n\272?\375\037\217\031\226\213\256?\375\037\217\031\226\213\256?\375\037\217\031\226\213\256?S\313\177\324\370\n\272?\375\037\217\031\226\213\256?\375\037\217\031\226\213\256?\375\037\217\031\226\213\256?S\313\177\324\370\n\272?\375\037\217\031\226\213\256?\375\037\217\031\226\213\256?\375\037\217\031\226\213\256?S\313\177\324\370\n\272?\375\037\217\031\226\213\256?\375\037\217\031\226\213\256?\375\037\217\031\226\213\256?S\313\177\324\370\n\272?\375\037\217\031\226\213\256?\375\037\217\031\226\213\256?\375\037\217\031\226\213\256?S\313\177\324\370\n\272?\375\037\217\031\226\213\256?\375\037\217\031\226\213\256?\375\037\217\031\226\213\256?S\313\177\324\370\n\272?\375\037\217\031\226\213\256?\375\037\217\031\226\213\256?\375\037\217\031\226\213\256?S\313\177\324\370\n\272?\375\037\217\031\226\213\256?\375\037\217\031\226\213\256?\375\037\217\031\226\213\256?S\313\177\324\370\n\272?\375\037\217\031\226\213\256?\375\037\217\031\226\213\256?\375\037\217\031\226\213\256?S\313\177\324\370\n\272?\375\037\217\031\226\213\256?\375\037\217\031\226\213\256?\375\037\217\031\226\213\256?S\313\177\324\370\n\272?\375\037\217\031\226\213\256?\375\037\217\031\226\213\256?\375\037\217\031\226\213\256?S\313\177\324\370\n\272?\375\037\217\031\226\213\256?\375\037\217\031\226\213\256?\375\037\217\031\226\213\256?S\313\177\324\370\n\272?\375\037\217\031\226\213\256?\375\037\217\031\226\213\256?\375\037\217\031\226\213\256?S\313\177\324\370\n\272?\375\037\217\031\226\213\256?\375\037\217\031\226\213\256?\375\037\217\031\226\213\256?S\313\177\324\370\n\272?\375\037\217\031\226\213\256?\375\037\217\031\226\213\256?\375\037\217\031\226\213\256?S\313\177\324\370\n\272?\375\037\217\031\226\213\256?\375\037\217\031\226\213\256?\375\037\217\031\226\213\256?"
      }
    }
  }
}
node {
  name: "descrpt_attr/t_std/read"
  op: "Identity"
  input: "descrpt_attr/t_std"
  attr {
    key: "T"
    value {
      type: DT_DOUBLE
    }
  }
  attr {
    key: "_class"
    value {
      list {
        s: "loc:@descrpt_attr/t_std"
      }
    }
  }
}
node {
  name: "strided_slice_4/stack"
  op: "Const"
  input: "^descrpt_attr/original_sel"
  input: "^descrpt_attr/sel"
  attr {
    key: "dtype"
    value {
      type: DT_INT32
    }
  }
  attr {
    key: "value"
    value {
      tensor {
        dtype: DT_INT32
        tensor_shape {
          dim {
            size: 1
          }
        }
        int_val: 1
      }
    }
  }
}
node {
  name: "strided_slice_4/stack_1"
  op: "Const"
  input: "^descrpt_attr/original_sel"
  input: "^descrpt_attr/sel"
  attr {
    key: "dtype"
    value {
      type: DT_INT32
    }
  }
  attr {
    key: "value"
    value {
      tensor {
        dtype: DT_INT32
        tensor_shape {
          dim {
            size: 1
          }
        }
        int_val: 2
      }
    }
  }
}
node {
  name: "strided_slice_4/stack_2"
  op: "Const"
  input: "^descrpt_attr/original_sel"
  input: "^descrpt_attr/sel"
  attr {
    key: "dtype"
    value {
      type: DT_INT32
    }
  }
  attr {
    key: "value"
    value {
      tensor {
        dtype: DT_INT32
        tensor_shape {
          dim {
            size: 1
          }
        }
        int_val: 1
      }
    }
  }
}
node {
  name: "strided_slice_4"
  op: "StridedSlice"
  input: "t_natoms"
  input: "strided_slice_4/stack"
  input: "strided_slice_4/stack_1"
  input: "strided_slice_4/stack_2"
  attr {
    key: "Index"
    value {
      type: DT_INT32
    }
  }
  attr {
    key: "T"
    value {
      type: DT_INT32
    }
  }
  attr {
    key: "begin_mask"
    value {
      i: 0
    }
  }
  attr {
    key: "ellipsis_mask"
    value {
      i: 0
    }
  }
  attr {
    key: "end_mask"
    value {
      i: 0
    }
  }
  attr {
    key: "new_axis_mask"
    value {
      i: 0
    }
  }
  attr {
    key: "shrink_axis_mask"
    value {
      i: 1
    }
  }
}
node {
  name: "mul_1/y"
  op: "Const"
  input: "^descrpt_attr/original_sel"
  input: "^descrpt_attr/sel"
  attr {
    key: "dtype"
    value {
      type: DT_INT32
    }
  }
  attr {
    key: "value"
    value {
      tensor {
        dtype: DT_INT32
        tensor_shape {
        }
        int_val: 3
      }
    }
  }
}
node {
  name: "mul_1"
  op: "Mul"
  input: "strided_slice_4"
  input: "mul_1/y"
  attr {
    key: "T"
    value {
      type: DT_INT32
    }
  }
}
node {
  name: "Reshape_2/shape/0"
  op: "Const"
  input: "^descrpt_attr/original_sel"
  input: "^descrpt_attr/sel"
  attr {
    key: "dtype"
    value {
      type: DT_INT32
    }
  }
  attr {
    key: "value"
    value {
      tensor {
        dtype: DT_INT32
        tensor_shape {
        }
        int_val: -1
      }
    }
  }
}
node {
  name: "Reshape_2/shape"
  op: "Pack"
  input: "Reshape_2/shape/0"
  input: "mul_1"
  attr {
    key: "N"
    value {
      i: 2
    }
  }
  attr {
    key: "T"
    value {
      type: DT_INT32
    }
  }
  attr {
    key: "axis"
    value {
      i: 0
    }
  }
}
node {
  name: "Reshape_2"
  op: "Reshape"
  input: "Reshape"
  input: "Reshape_2/shape"
  attr {
    key: "T"
    value {
      type: DT_DOUBLE
    }
  }
  attr {
    key: "Tshape"
    value {
      type: DT_INT32
    }
  }
}
node {
  name: "Reshape_3/shape"
  op: "Const"
  attr {
    key: "dtype"
    value {
      type: DT_INT32
    }
  }
  attr {
    key: "value"
    value {
      tensor {
        dtype: DT_INT32
        tensor_shape {
          dim {
            size: 2
          }
        }
        tensor_content: "\377\377\377\377\t\000\000\000"
      }
    }
  }
}
node {
  name: "Reshape_3"
  op: "Reshape"
  input: "t_box"
  input: "Reshape_3/shape"
  attr {
    key: "T"
    value {
      type: DT_DOUBLE
    }
  }
  attr {
    key: "Tshape"
    value {
      type: DT_INT32
    }
  }
}
node {
  name: "strided_slice_5/stack"
  op: "Const"
  attr {
    key: "dtype"
    value {
      type: DT_INT32
    }
  }
  attr {
    key: "value"
    value {
      tensor {
        dtype: DT_INT32
        tensor_shape {
          dim {
            size: 1
          }
        }
        int_val: 1
      }
    }
  }
}
node {
  name: "strided_slice_5/stack_1"
  op: "Const"
  attr {
    key: "dtype"
    value {
      type: DT_INT32
    }
  }
  attr {
    key: "value"
    value {
      tensor {
        dtype: DT_INT32
        tensor_shape {
          dim {
            size: 1
          }
        }
        int_val: 2
      }
    }
  }
}
node {
  name: "strided_slice_5/stack_2"
  op: "Const"
  attr {
    key: "dtype"
    value {
      type: DT_INT32
    }
  }
  attr {
    key: "value"
    value {
      tensor {
        dtype: DT_INT32
        tensor_shape {
          dim {
            size: 1
          }
        }
        int_val: 1
      }
    }
  }
}
node {
  name: "strided_slice_5"
  op: "StridedSlice"
  input: "t_natoms"
  input: "strided_slice_5/stack"
  input: "strided_slice_5/stack_1"
  input: "strided_slice_5/stack_2"
  attr {
    key: "Index"
    value {
      type: DT_INT32
    }
  }
  attr {
    key: "T"
    value {
      type: DT_INT32
    }
  }
  attr {
    key: "begin_mask"
    value {
      i: 0
    }
  }
  attr {
    key: "ellipsis_mask"
    value {
      i: 0
    }
  }
  attr {
    key: "end_mask"
    value {
      i: 0
    }
  }
  attr {
    key: "new_axis_mask"
    value {
      i: 0
    }
  }
  attr {
    key: "shrink_axis_mask"
    value {
      i: 1
    }
  }
}
node {
  name: "Reshape_4/shape/0"
  op: "Const"
  attr {
    key: "dtype"
    value {
      type: DT_INT32
    }
  }
  attr {
    key: "value"
    value {
      tensor {
        dtype: DT_INT32
        tensor_shape {
        }
        int_val: -1
      }
    }
  }
}
node {
  name: "Reshape_4/shape"
  op: "Pack"
  input: "Reshape_4/shape/0"
  input: "strided_slice_5"
  attr {
    key: "N"
    value {
      i: 2
    }
  }
  attr {
    key: "T"
    value {
      type: DT_INT32
    }
  }
  attr {
    key: "axis"
    value {
      i: 0
    }
  }
}
node {
  name: "Reshape_4"
  op: "Reshape"
  input: "Reshape_1"
  input: "Reshape_4/shape"
  attr {
    key: "T"
    value {
      type: DT_INT32
    }
  }
  attr {
    key: "Tshape"
    value {
      type: DT_INT32
    }
  }
}
node {
  name: "ProdEnvMatA"
  op: "ProdEnvMatA"
  input: "Reshape_2"
  input: "Reshape_4"
  input: "t_natoms"
  input: "Reshape_3"
  input: "t_mesh"
  input: "descrpt_attr/t_avg/read"
  input: "descrpt_attr/t_std/read"
  attr {
    key: "T"
    value {
      type: DT_DOUBLE
    }
  }
  attr {
    key: "rcut_a"
    value {
      f: -1.0
    }
  }
  attr {
    key: "rcut_r"
    value {
      f: 4.0
    }
  }
  attr {
    key: "rcut_r_smth"
    value {
      f: 0.5
    }
  }
  attr {
    key: "sel_a"
    value {
      list {
        i: 46
        i: 92
      }
    }
  }
  attr {
    key: "sel_r"
    value {
      list {
        i: 0
        i: 0
      }
    }
  }
}
node {
  name: "Reshape_7/shape"
  op: "Const"
  attr {
    key: "dtype"
    value {
      type: DT_INT32
    }
  }
  attr {
    key: "value"
    value {
      tensor {
        dtype: DT_INT32
        tensor_shape {
          dim {
            size: 2
          }
        }
        tensor_content: "\377\377\377\377(\002\000\000"
      }
    }
  }
}
node {
  name: "Reshape_7"
  op: "Reshape"
  input: "ProdEnvMatA"
  input: "Reshape_7/shape"
  attr {
    key: "T"
    value {
      type: DT_DOUBLE
    }
  }
  attr {
    key: "Tshape"
    value {
      type: DT_INT32
    }
  }
}
node {
  name: "o_rmat"
  op: "Identity"
  input: "Reshape_7"
  attr {
    key: "T"
    value {
      type: DT_DOUBLE
    }
  }
}
node {
  name: "o_rmat_deriv"
  op: "Identity"
  input: "ProdEnvMatA:1"
  attr {
    key: "T"
    value {
      type: DT_DOUBLE
    }
  }
}
node {
  name: "o_rij"
  op: "Identity"
  input: "ProdEnvMatA:2"
  attr {
    key: "T"
    value {
      type: DT_DOUBLE
    }
  }
}
node {
  name: "o_nlist"
  op: "Identity"
  input: "ProdEnvMatA:3"
  attr {
    key: "T"
    value {
      type: DT_INT32
    }
  }
}
node {
  name: "strided_slice_6/stack"
  op: "Const"
  attr {
    key: "dtype"
    value {
      type: DT_INT32
    }
  }
  attr {
    key: "value"
    value {
      tensor {
        dtype: DT_INT32
        tensor_shape {
          dim {
            size: 1
          }
        }
        int_val: 0
      }
    }
  }
}
node {
  name: "strided_slice_6/stack_1"
  op: "Const"
  attr {
    key: "dtype"
    value {
      type: DT_INT32
    }
  }
  attr {
    key: "value"
    value {
      tensor {
        dtype: DT_INT32
        tensor_shape {
          dim {
            size: 1
          }
        }
        int_val: 1
      }
    }
  }
}
node {
  name: "strided_slice_6/stack_2"
  op: "Const"
  attr {
    key: "dtype"
    value {
      type: DT_INT32
    }
  }
  attr {
    key: "value"
    value {
      tensor {
        dtype: DT_INT32
        tensor_shape {
          dim {
            size: 1
          }
        }
        int_val: 1
      }
    }
  }
}
node {
  name: "strided_slice_6"
  op: "StridedSlice"
  input: "t_natoms"
  input: "strided_slice_6/stack"
  input: "strided_slice_6/stack_1"
  input: "strided_slice_6/stack_2"
  attr {
    key: "Index"
    value {
      type: DT_INT32
    }
  }
  attr {
    key: "T"
    value {
      type: DT_INT32
    }
  }
  attr {
    key: "begin_mask"
    value {
      i: 0
    }
  }
  attr {
    key: "ellipsis_mask"
    value {
      i: 0
    }
  }
  attr {
    key: "end_mask"
    value {
      i: 0
    }
  }
  attr {
    key: "new_axis_mask"
    value {
      i: 0
    }
  }
  attr {
    key: "shrink_axis_mask"
    value {
      i: 1
    }
  }
}
node {
  name: "Reshape_8/shape/0"
  op: "Const"
  attr {
    key: "dtype"
    value {
      type: DT_INT32
    }
  }
  attr {
    key: "value"
    value {
      tensor {
        dtype: DT_INT32
        tensor_shape {
        }
        int_val: -1
      }
    }
  }
}
node {
  name: "Reshape_8/shape/2"
  op: "Const"
  attr {
    key: "dtype"
    value {
      type: DT_INT32
    }
  }
  attr {
    key: "value"
    value {
      tensor {
        dtype: DT_INT32
        tensor_shape {
        }
        int_val: 552
      }
    }
  }
}
node {
  name: "Reshape_8/shape"
  op: "Pack"
  input: "Reshape_8/shape/0"
  input: "strided_slice_6"
  input: "Reshape_8/shape/2"
  attr {
    key: "N"
    value {
      i: 3
    }
  }
  attr {
    key: "T"
    value {
      type: DT_INT32
    }
  }
  attr {
    key: "axis"
    value {
      i: 0
    }
  }
}
node {
  name: "Reshape_8"
  op: "Reshape"
  input: "o_rmat"
  input: "Reshape_8/shape"
  attr {
    key: "T"
    value {
      type: DT_DOUBLE
    }
  }
  attr {
    key: "Tshape"
    value {
      type: DT_INT32
    }
  }
}
node {
  name: "Reshape_9/shape"
  op: "Const"
  attr {
    key: "dtype"
    value {
      type: DT_INT32
    }
  }
  attr {
    key: "value"
    value {
      tensor {
        dtype: DT_INT32
        tensor_shape {
          dim {
            size: 2
          }
        }
        tensor_content: "\377\377\377\377(\002\000\000"
      }
    }
  }
}
node {
  name: "Reshape_9"
  op: "Reshape"
  input: "Reshape_8"
  input: "Reshape_9/shape"
  attr {
    key: "T"
    value {
      type: DT_DOUBLE
    }
  }
  attr {
    key: "Tshape"
    value {
      type: DT_INT32
    }
  }
}
node {
  name: "filter_type_all/Slice/begin"
  op: "Const"
  attr {
    key: "dtype"
    value {
      type: DT_INT32
    }
  }
  attr {
    key: "value"
    value {
      tensor {
        dtype: DT_INT32
        tensor_shape {
          dim {
            size: 2
          }
        }
        tensor_content: "\000\000\000\000\000\000\000\000"
      }
    }
  }
}
node {
  name: "filter_type_all/Slice/size"
  op: "Const"
  attr {
    key: "dtype"
    value {
      type: DT_INT32
    }
  }
  attr {
    key: "value"
    value {
      tensor {
        dtype: DT_INT32
        tensor_shape {
          dim {
            size: 2
          }
        }
        tensor_content: "\377\377\377\377\270\000\000\000"
      }
    }
  }
}
node {
  name: "filter_type_all/Slice"
  op: "Slice"
  input: "Reshape_9"
  input: "filter_type_all/Slice/begin"
  input: "filter_type_all/Slice/size"
  attr {
    key: "Index"
    value {
      type: DT_INT32
    }
  }
  attr {
    key: "T"
    value {
      type: DT_DOUBLE
    }
  }
}
node {
  name: "filter_type_all/Shape"
  op: "Shape"
  input: "filter_type_all/Slice"
  attr {
    key: "T"
    value {
      type: DT_DOUBLE
    }
  }
  attr {
    key: "out_type"
    value {
      type: DT_INT32
    }
  }
  experimental_type {
    type_id: TFT_PRODUCT
    args {
      type_id: TFT_SHAPE_TENSOR
      args {
        type_id: TFT_INT32
      }
    }
  }
}
node {
  name: "filter_type_all/strided_slice/stack"
  op: "Const"
  attr {
    key: "dtype"
    value {
      type: DT_INT32
    }
  }
  attr {
    key: "value"
    value {
      tensor {
        dtype: DT_INT32
        tensor_shape {
          dim {
            size: 1
          }
        }
        int_val: 0
      }
    }
  }
}
node {
  name: "filter_type_all/strided_slice/stack_1"
  op: "Const"
  attr {
    key: "dtype"
    value {
      type: DT_INT32
    }
  }
  attr {
    key: "value"
    value {
      tensor {
        dtype: DT_INT32
        tensor_shape {
          dim {
            size: 1
          }
        }
        int_val: 1
      }
    }
  }
}
node {
  name: "filter_type_all/strided_slice/stack_2"
  op: "Const"
  attr {
    key: "dtype"
    value {
      type: DT_INT32
    }
  }
  attr {
    key: "value"
    value {
      tensor {
        dtype: DT_INT32
        tensor_shape {
          dim {
            size: 1
          }
        }
        int_val: 1
      }
    }
  }
}
node {
  name: "filter_type_all/strided_slice"
  op: "StridedSlice"
  input: "filter_type_all/Shape"
  input: "filter_type_all/strided_slice/stack"
  input: "filter_type_all/strided_slice/stack_1"
  input: "filter_type_all/strided_slice/stack_2"
  attr {
    key: "Index"
    value {
      type: DT_INT32
    }
  }
  attr {
    key: "T"
    value {
      type: DT_INT32
    }
  }
  attr {
    key: "begin_mask"
    value {
      i: 0
    }
  }
  attr {
    key: "ellipsis_mask"
    value {
      i: 0
    }
  }
  attr {
    key: "end_mask"
    value {
      i: 0
    }
  }
  attr {
    key: "new_axis_mask"
    value {
      i: 0
    }
  }
  attr {
    key: "shrink_axis_mask"
    value {
      i: 1
    }
  }
}
node {
  name: "filter_type_all/Reshape/shape"
  op: "Const"
  attr {
    key: "dtype"
    value {
      type: DT_INT32
    }
  }
  attr {
    key: "value"
    value {
      tensor {
        dtype: DT_INT32
        tensor_shape {
          dim {
            size: 2
          }
        }
        tensor_content: "\377\377\377\377\004\000\000\000"
      }
    }
  }
}
node {
  name: "filter_type_all/Reshape"
  op: "Reshape"
  input: "filter_type_all/Slice"
  input: "filter_type_all/Reshape/shape"
  attr {
    key: "T"
    value {
      type: DT_DOUBLE
    }
  }
  attr {
    key: "Tshape"
    value {
      type: DT_INT32
    }
  }
}
node {
  name: "filter_type_all/Slice_1/begin"
  op: "Const"
  attr {
    key: "dtype"
    value {
      type: DT_INT32
    }
  }
  attr {
    key: "value"
    value {
      tensor {
        dtype: DT_INT32
        tensor_shape {
          dim {
            size: 2
          }
        }
        tensor_content: "\000\000\000\000\000\000\000\000"
      }
    }
  }
}
node {
  name: "filter_type_all/Slice_1/size"
  op: "Const"
  attr {
    key: "dtype"
    value {
      type: DT_INT32
    }
  }
  attr {
    key: "value"
    value {
      tensor {
        dtype: DT_INT32
        tensor_shape {
          dim {
            size: 2
          }
        }
        tensor_content: "\377\377\377\377\001\000\000\000"
      }
    }
  }
}
node {
  name: "filter_type_all/Slice_1"
  op: "Slice"
  input: "filter_type_all/Reshape"
  input: "filter_type_all/Slice_1/begin"
  input: "filter_type_all/Slice_1/size"
  attr {
    key: "Index"
    value {
      type: DT_INT32
    }
  }
  attr {
    key: "T"
    value {
      type: DT_DOUBLE
    }
  }
}
node {
  name: "filter_type_all/Reshape_1/shape"
  op: "Const"
  attr {
    key: "dtype"
    value {
      type: DT_INT32
    }
  }
  attr {
    key: "value"
    value {
      tensor {
        dtype: DT_INT32
        tensor_shape {
          dim {
            size: 2
          }
        }
        tensor_content: "\377\377\377\377\001\000\000\000"
      }
    }
  }
}
node {
  name: "filter_type_all/Reshape_1"
  op: "Reshape"
  input: "filter_type_all/Slice_1"
  input: "filter_type_all/Reshape_1/shape"
  attr {
    key: "T"
    value {
      type: DT_DOUBLE
    }
  }
  attr {
    key: "Tshape"
    value {
      type: DT_INT32
    }
  }
}
node {
  name: "filter_type_all/matrix_1_0"
  op: "Const"
  attr {
    key: "dtype"
    value {
      type: DT_DOUBLE
    }
  }
  attr {
    key: "value"
    value {
      tensor {
        dtype: DT_DOUBLE
        tensor_shape {
          dim {
            size: 1
          }
          dim {
            size: 25
          }
        }
        tensor_content: "\2233\340\246\356%\260\277\264\261W\203\373\212\306?\246\235\342x\215{\330\277\204e\'I\202\251\217\277\2372/!gq\306?\261\267\277\t?C\260\277\366\307\270\215\\\235\313?\266Bz\302B\213\262?\003\325g\220\306\356\316\2775`f2\355z\240\277\236>\0066\034\321\312?\316\313\";L\231\201\277\000\355\364i\013\355\242\277*\374\215\353\006\214\260?\2434\231sLo\221\277r\245\252=\313\354\320?0\270\273{\0377\242?\330\244\016\340\234\343\321?\211.\252?x\002\302?\314\251\2138\273\376\304\277=/\033S\305\253\266?\2758\265\r\313\'\301\277\317\223\206=3\001\330\277$#\314\376\353\331\320?I\003\303\240\300\245v\277"
      }
    }
  }
}
node {
  name: "filter_type_all/matrix_1_0/read"
  op: "Identity"
  input: "filter_type_all/matrix_1_0"
  attr {
    key: "T"
    value {
      type: DT_DOUBLE
    }
  }
  attr {
    key: "_class"
    value {
      list {
        s: "loc:@filter_type_all/matrix_1_0"
      }
    }
  }
}
node {
  name: "filter_type_all/bias_1_0"
  op: "Const"
  attr {
    key: "dtype"
    value {
      type: DT_DOUBLE
    }
  }
  attr {
    key: "value"
    value {
      tensor {
        dtype: DT_DOUBLE
        tensor_shape {
          dim {
            size: 25
          }
        }
        tensor_content: "\250f4\177X\177\331\277W\"\236\230;\241\000\30033\215\250b\004\347\277\220;S1\264+\324\277\351\025\320\340\230\034\360\277\342\242#\003-\350\000\300SC\002\366\014\333\352\277\335s\352\377o\254\365?\254 \301\267L\226\324\277\010\371\352\273\035\202\234?\207\243b\234\357{\342\277\225,\253\031\344\370\314\277\3308\346\343\370\270\342\277\277\317\335\327\211\177\347\277\031\3551\037\366\333\335?\003\344h\014\351d\001@\023g>\243\007\323\346?\335b\260i\020\352\360?\367\035H\250\221\337\366\277\342\316%\303\335Y\376?\315[\2106\211\276\257\277\340\\m\230\325\371\332?h\001\330\372\326\260\366\277\375n@Xs\356\340?*\340\353~\005%\354\277"
      }
    }
  }
}
node {
  name: "filter_type_all/bias_1_0/read"
  op: "Identity"
  input: "filter_type_all/bias_1_0"
  attr {
    key: "T"
    value {
      type: DT_DOUBLE
    }
  }
  attr {
    key: "_class"
    value {
      list {
        s: "loc:@filter_type_all/bias_1_0"
      }
    }
  }
}
node {
  name: "filter_type_all/MatMul"
  op: "MatMul"
  input: "filter_type_all/Reshape_1"
  input: "filter_type_all/matrix_1_0/read"
  attr {
    key: "T"
    value {
      type: DT_DOUBLE
    }
  }
  attr {
    key: "grad_a"
    value {
      b: false
    }
  }
  attr {
    key: "grad_b"
    value {
      b: false
    }
  }
  attr {
    key: "transpose_a"
    value {
      b: false
    }
  }
  attr {
    key: "transpose_b"
    value {
      b: false
    }
  }
}
node {
  name: "filter_type_all/BiasAdd"
  op: "BiasAdd"
  input: "filter_type_all/MatMul"
  input: "filter_type_all/bias_1_0/read"
  attr {
    key: "T"
    value {
      type: DT_DOUBLE
    }
  }
  attr {
    key: "data_format"
    value {
      s: "NHWC"
    }
  }
}
node {
  name: "filter_type_all/Tanh"
  op: "Tanh"
  input: "filter_type_all/BiasAdd"
  attr {
    key: "T"
    value {
      type: DT_DOUBLE
    }
  }
}
node {
  name: "filter_type_all/Reshape_2/shape"
  op: "Const"
  attr {
    key: "dtype"
    value {
      type: DT_INT32
    }
  }
  attr {
    key: "value"
    value {
      tensor {
        dtype: DT_INT32
        tensor_shape {
          dim {
            size: 2
          }
        }
        tensor_content: "\377\377\377\377\031\000\000\000"
      }
    }
  }
}
node {
  name: "filter_type_all/Reshape_2"
  op: "Reshape"
  input: "filter_type_all/Tanh"
  input: "filter_type_all/Reshape_2/shape"
  attr {
    key: "T"
    value {
      type: DT_DOUBLE
    }
  }
  attr {
    key: "Tshape"
    value {
      type: DT_INT32
    }
  }
}
node {
  name: "filter_type_all/matrix_2_0"
  op: "Const"
  attr {
    key: "dtype"
    value {
      type: DT_DOUBLE
    }
  }
  attr {
    key: "value"
    value {
      tensor {
        dtype: DT_DOUBLE
        tensor_shape {
          dim {
            size: 25
          }
          dim {
            size: 50
          }
        }
